{
  "version": "1.0",
  "truncation": null,
  "padding": null,
  "added_tokens": [
    {
      "id": 0,
      "content": "[PAD]",
      "single_word": false,
      "lstrip": false,
      "rstrip": false,
      "normalized": false,
      "special": true
    },
    {
      "id": 1,
      "content": "[UNK]",
      "single_word": false,
      "lstrip": false,
      "rstrip": false,
      "normalized": false,
      "special": true
    },
    {
      "id": 2,
      "content": "[CLS]",
      "single_word": false,
      "lstrip": false,
      "rstrip": false,
      "normalized": false,
      "special": true
    },
    {
      "id": 3,
      "content": "[SEP]",
      "single_word": false,
      "lstrip": false,
      "rstrip": false,
      "normalized": false,
      "special": true
    },
    {
      "id": 4,
      "content": "[MASK]",
      "single_word": false,
      "lstrip": false,
      "rstrip": false,
      "normalized": false,
      "special": true
    }
  ],
  "normalizer": null,
  "pre_tokenizer": {
    "type": "Whitespace"
  },
  "post_processor": null,
  "decoder": null,
  "model": {
    "type": "BPE",
    "dropout": null,
    "unk_token": "[UNK]",
    "continuing_subword_prefix": null,
    "end_of_word_suffix": null,
    "fuse_unk": false,
    "byte_fallback": false,
    "ignore_merges": false,
    "vocab": {
      "[PAD]": 0,
      "[UNK]": 1,
      "[CLS]": 2,
      "[SEP]": 3,
      "[MASK]": 4,
      "#": 5,
      "$": 6,
      "&": 7,
      "'": 8,
      "*": 9,
      "-": 10,
      ".": 11,
      "/": 12,
      "0": 13,
      "1": 14,
      "2": 15,
      "3": 16,
      "4": 17,
      "5": 18,
      "6": 19,
      "7": 20,
      "8": 21,
      "9": 22,
      "<": 23,
      ">": 24,
      "N": 25,
      "\\": 26,
      "a": 27,
      "b": 28,
      "c": 29,
      "d": 30,
      "e": 31,
      "f": 32,
      "g": 33,
      "h": 34,
      "i": 35,
      "j": 36,
      "k": 37,
      "l": 38,
      "m": 39,
      "n": 40,
      "o": 41,
      "p": 42,
      "q": 43,
      "r": 44,
      "s": 45,
      "t": 46,
      "u": 47,
      "v": 48,
      "w": 49,
      "x": 50,
      "y": 51,
      "z": 52,
      "th": 53,
      "in": 54,
      "the": 55,
      "an": 56,
      "un": 57,
      "er": 58,
      "on": 59,
      "re": 60,
      "unk": 61,
      "at": 62,
      "st": 63,
      "or": 64,
      "en": 65,
      "al": 66,
      "ed": 67,
      "ar": 68,
      "of": 69,
      "to": 70,
      "it": 71,
      "es": 72,
      "ing": 73,
      "ion": 74,
      "as": 75,
      "is": 76,
      "ro": 77,
      "and": 78,
      "il": 79,
      "ic": 80,
      "co": 81,
      "se": 82,
      "ent": 83,
      "id": 84,
      "ou": 85,
      "ch": 86,
      "le": 87,
      "ve": 88,
      "ill": 89,
      "for": 90,
      "ad": 91,
      "be": 92,
      "ct": 93,
      "sa": 94,
      "com": 95,
      "ly": 96,
      "ut": 97,
      "are": 98,
      "ur": 99,
      "that": 100,
      "de": 101,
      "lo": 102,
      "wh": 103,
      "et": 104,
      "con": 105,
      "ers": 106,
      "ld": 107,
      "ag": 108,
      "su": 109,
      "ear": 110,
      "ir": 111,
      "pro": 112,
      "ay": 113,
      "sh": 114,
      "me": 115,
      "ce": 116,
      "ig": 117,
      "ex": 118,
      "ver": 119,
      "so": 120,
      "ation": 121,
      "illion": 122,
      "ter": 123,
      "mo": 124,
      "ment": 125,
      "tr": 126,
      "po": 127,
      "no": 128,
      "he": 129,
      "said": 130,
      "am": 131,
      "comp": 132,
      "res": 133,
      "ate": 134,
      "ne": 135,
      "ab": 136,
      "we": 137,
      "ap": 138,
      "li": 139,
      "ith": 140,
      "ac": 141,
      "with": 142,
      "by": 143,
      "man": 144,
      "qu": 145,
      "fro": 146,
      "from": 147,
      "its": 148,
      "million": 149,
      "pe": 150,
      "im": 151,
      "out": 152,
      "pr": 153,
      "mr": 154,
      "ge": 155,
      "ll": 156,
      "ak": 157,
      "ain": 158,
      "was": 159,
      "year": 160,
      "bu": 161,
      "te": 162,
      "ies": 163,
      "do": 164,
      "str": 165,
      "du": 166,
      "but": 167,
      "mar": 168,
      "ts": 169,
      "ial": 170,
      "ther": 171,
      "ha": 172,
      "any": 173,
      "all": 174,
      "op": 175,
      "up": 176,
      "inc": 177,
      "pl": 178,
      "off": 179,
      "has": 180,
      "ess": 181,
      "will": 182,
      "new": 183,
      "one": 184,
      "por": 185,
      "ast": 186,
      "au": 187,
      "ive": 188,
      "if": 189,
      "und": 190,
      "ck": 191,
      "ho": 192,
      "go": 193,
      "igh": 194,
      "mark": 195,
      "have": 196,
      "act": 197,
      "sto": 198,
      "iv": 199,
      "est": 200,
      "share": 201,
      "end": 202,
      "wer": 203,
      "cor": 204,
      "say": 205,
      "art": 206,
      "ity": 207,
      "market": 208,
      "day": 209,
      "ould": 210,
      "fo": 211,
      "ich": 212,
      "fe": 213,
      "company": 214,
      "ie": 215,
      "bo": 216,
      "mon": 217,
      "ul": 218,
      "age": 219,
      "they": 220,
      "wn": 221,
      "ice": 222,
      "ant": 223,
      "stock": 224,
      "this": 225,
      "em": 226,
      "gh": 227,
      "trad": 228,
      "which": 229,
      "pres": 230,
      "port": 231,
      "would": 232,
      "ork": 233,
      "cent": 234,
      "ard": 235,
      "lu": 236,
      "other": 237,
      "more": 238,
      "per": 239,
      "about": 240,
      "af": 241,
      "us": 242,
      "ake": 243,
      "ors": 244,
      "ban": 245,
      "vest": 246,
      "ist": 247,
      "ber": 248,
      "fir": 249,
      "says": 250,
      "invest": 251,
      "who": 252,
      "sal": 253,
      "wo": 254,
      "red": 255,
      "lin": 256,
      "not": 257,
      "were": 258,
      "sin": 259,
      "ip": 260,
      "ong": 261,
      "fin": 262,
      "some": 263,
      "part": 264,
      "gro": 265,
      "billion": 266,
      "ke": 267,
      "mer": 268,
      "inter": 269,
      "our": 270,
      "anc": 271,
      "his": 272,
      "ack": 273,
      "cur": 274,
      "had": 275,
      "their": 276,
      "chan": 277,
      "min": 278,
      "bank": 279,
      "over": 280,
      "ions": 281,
      "la": 282,
      "ans": 283,
      "ust": 284,
      "than": 285,
      "ings": 286,
      "ations": 287,
      "cr": 288,
      "od": 289,
      "pre": 290,
      "ond": 291,
      "los": 292,
      "ti": 293,
      "pos": 294,
      "ated": 295,
      "reas": 296,
      "been": 297,
      "air": 298,
      "ven": 299,
      "ight": 300,
      "ach": 301,
      "also": 302,
      "eral": 303,
      "ident": 304,
      "br": 305,
      "ign": 306,
      "bl": 307,
      "di": 308,
      "cont": 309,
      "gr": 310,
      "fr": 311,
      "produ": 312,
      "um": 313,
      "ren": 314,
      "ree": 315,
      "corp": 316,
      "ance": 317,
      "cut": 318,
      "om": 319,
      "yst": 320,
      "pect": 321,
      "low": 322,
      "dis": 323,
      "cau": 324,
      "ue": 325,
      "vo": 326,
      "dec": 327,
      "coun": 328,
      "month": 329,
      "ia": 330,
      "ction": 331,
      "ding": 332,
      "ition": 333,
      "ek": 334,
      "ta": 335,
      "ical": 336,
      "ual": 337,
      "sp": 338,
      "ates": 339,
      "ary": 340,
      "ser": 341,
      "ices": 342,
      "ide": 343,
      "ble": 344,
      "comm": 345,
      "ities": 346,
      "busin": 347,
      "business": 348,
      "ous": 349,
      "can": 350,
      "int": 351,
      "arter": 352,
      "able": 353,
      "nation": 354,
      "president": 355,
      "when": 356,
      "two": 357,
      "last": 358,
      "after": 359,
      "work": 360,
      "ile": 361,
      "most": 362,
      "ough": 363,
      "quarter": 364,
      "fore": 365,
      "now": 366,
      "shares": 367,
      "cause": 368,
      "ma": 369,
      "years": 370,
      "el": 371,
      "buy": 372,
      "ms": 373,
      "ure": 374,
      "first": 375,
      "offic": 376,
      "high": 377,
      "trading": 378,
      "ish": 379,
      "sur": 380,
      "sales": 381,
      "hold": 382,
      "oper": 383,
      "cer": 384,
      "because": 385,
      "cal": 386,
      "expect": 387,
      "cou": 388,
      "iz": 389,
      "gen": 390,
      "pu": 391,
      "ef": 392,
      "fed": 393,
      "bond": 394,
      "could": 395,
      "jo": 396,
      "get": 397,
      "may": 398,
      "there": 399,
      "ted": 400,
      "indu": 401,
      "week": 402,
      "come": 403,
      "under": 404,
      "ite": 405,
      "issu": 406,
      "prov": 407,
      "industr": 408,
      "group": 409,
      "many": 410,
      "rou": 411,
      "ments": 412,
      "change": 413,
      "bas": 414,
      "fund": 415,
      "vi": 416,
      "pol": 417,
      "way": 418,
      "national": 419,
      "own": 420,
      "add": 421,
      "eric": 422,
      "only": 423,
      "dr": 424,
      "law": 425,
      "increas": 426,
      "such": 427,
      "offer": 428,
      "vern": 429,
      "govern": 430,
      "time": 431,
      "sen": 432,
      "plan": 433,
      "york": 434,
      "mak": 435,
      "av": 436,
      "very": 437,
      "wor": 438,
      "jap": 439,
      "japan": 440,
      "down": 441,
      "cas": 442,
      "ine": 443,
      "ok": 444,
      "ext": 445,
      "americ": 446,
      "prof": 447,
      "interest": 448,
      "financ": 449,
      "ci": 450,
      "into": 451,
      "like": 452,
      "ste": 453,
      "cap": 454,
      "ures": 455,
      "econ": 456,
      "econom": 457,
      "tur": 458,
      "inclu": 459,
      "car": 460,
      "report": 461,
      "just": 462,
      "ital": 463,
      "ort": 464,
      "lt": 465,
      "set": 466,
      "pt": 467,
      "state": 468,
      "serv": 469,
      "sell": 470,
      "publ": 471,
      "ence": 472,
      "fer": 473,
      "si": 474,
      "arge": 475,
      "bro": 476,
      "while": 477,
      "pay": 478,
      "sub": 479,
      "big": 480,
      "ecut": 481,
      "net": 482,
      "execut": 483,
      "government": 484,
      "compan": 485,
      "ped": 486,
      "federal": 487,
      "anal": 488,
      "ced": 489,
      "her": 490,
      "secur": 491,
      "des": 492,
      "tain": 493,
      "cy": 494,
      "inde": 495,
      "contr": 496,
      "ty": 497,
      "cial": 498,
      "cess": 499,
      "companies": 500,
      "ph": 501,
      "ating": 502,
      "rough": 503,
      "ise": 504,
      "lect": 505,
      "earn": 506,
      "gram": 507,
      "ud": 508,
      "main": 509,
      "ade": 510,
      "program": 511,
      "gu": 512,
      "analyst": 513,
      "spe": 514,
      "back": 515,
      "tax": 516,
      "uring": 517,
      "official": 518,
      "them": 519,
      "ra": 520,
      "ger": 521,
      "cents": 522,
      "exchange": 523,
      "par": 524,
      "son": 525,
      "peop": 526,
      "ind": 527,
      "cour": 528,
      "tal": 529,
      "lier": 530,
      "people": 531,
      "turn": 532,
      "even": 533,
      "med": 534,
      "sid": 535,
      "what": 536,
      "you": 537,
      "call": 538,
      "ield": 539,
      "dire": 540,
      "line": 541,
      "earlier": 542,
      "ago": 543,
      "prices": 544,
      "cost": 545,
      "product": 546,
      "ca": 547,
      "ass": 548,
      "bet": 549,
      "price": 550,
      "ord": 551,
      "curren": 552,
      "ace": 553,
      "recent": 554,
      "ting": 555,
      "jor": 556,
      "major": 557,
      "att": 558,
      "ally": 559,
      "iss": 560,
      "investors": 561,
      "mu": 562,
      "stru": 563,
      "ev": 564,
      "contin": 565,
      "gain": 566,
      "hou": 567,
      "unit": 568,
      "ird": 569,
      "rose": 570,
      "ester": 571,
      "lat": 572,
      "ress": 573,
      "take": 574,
      "fact": 575,
      "direct": 576,
      "third": 577,
      "ens": 578,
      "ail": 579,
      "ged": 580,
      "reg": 581,
      "three": 582,
      "much": 583,
      "though": 584,
      "yester": 585,
      "yesterday": 586,
      "again": 587,
      "app": 588,
      "securities": 589,
      "months": 590,
      "clos": 591,
      "put": 592,
      "je": 593,
      "ision": 594,
      "house": 595,
      "bonds": 596,
      "public": 597,
      "large": 598,
      "loss": 599,
      "comput": 600,
      "tem": 601,
      "stand": 602,
      "rate": 603,
      "ief": 604,
      "next": 605,
      "financial": 606,
      "long": 607,
      "resu": 608,
      "ose": 609,
      "sup": 610,
      "ire": 611,
      "capital": 612,
      "through": 613,
      "ict": 614,
      "cre": 615,
      "ific": 616,
      "ges": 617,
      "lead": 618,
      "ton": 619,
      "val": 620,
      "sho": 621,
      "chair": 622,
      "deb": 623,
      "profit": 624,
      "investment": 625,
      "grow": 626,
      "earnings": 627,
      "make": 628,
      "she": 629,
      "board": 630,
      "unt": 631,
      "less": 632,
      "ility": 633,
      "well": 634,
      "war": 635,
      "american": 636,
      "chairman": 637,
      "form": 638,
      "sm": 639,
      "hel": 640,
      "acqu": 641,
      "west": 642,
      "did": 643,
      "nor": 644,
      "late": 645,
      "syst": 646,
      "system": 647,
      "loy": 648,
      "pur": 649,
      "def": 650,
      "still": 651,
      "chief": 652,
      "try": 653,
      "ink": 654,
      "these": 655,
      "industry": 656,
      "oney": 657,
      "general": 658,
      "gress": 659,
      "ese": 660,
      "early": 661,
      "stocks": 662,
      "read": 663,
      "executive": 664,
      "those": 665,
      "leg": 666,
      "money": 667,
      "index": 668,
      "cu": 669,
      "gy": 670,
      "velo": 671,
      "develo": 672,
      "current": 673,
      "equ": 674,
      "yield": 675,
      "since": 676,
      "ory": 677,
      "ury": 678,
      "deal": 679,
      "mb": 680,
      "ents": 681,
      "ject": 682,
      "before": 683,
      "bill": 684,
      "gan": 685,
      "inst": 686,
      "buil": 687,
      "expected": 688,
      "ared": 689,
      "made": 690,
      "gin": 691,
      "officials": 692,
      "emp": 693,
      "reat": 694,
      "fut": 695,
      "ris": 696,
      "thing": 697,
      "concer": 698,
      "div": 699,
      "tle": 700,
      "exp": 701,
      "good": 702,
      "ended": 703,
      "bid": 704,
      "contract": 705,
      "mit": 706,
      "llar": 707,
      "ives": 708,
      "concern": 709,
      "rop": 710,
      "ere": 711,
      "ol": 712,
      "spo": 713,
      "far": 714,
      "fect": 715,
      "sch": 716,
      "real": 717,
      "vel": 718,
      "cle": 719,
      "analysts": 720,
      "cond": 721,
      "verage": 722,
      "fil": 723,
      "clo": 724,
      "amp": 725,
      "closed": 726,
      "sear": 727,
      "ric": 728,
      "vie": 729,
      "contro": 730,
      "sel": 731,
      "proble": 732,
      "insur": 733,
      "dollar": 734,
      "cred": 735,
      "ning": 736,
      "les": 737,
      "days": 738,
      "ian": 739,
      "rates": 740,
      "itut": 741,
      "firm": 742,
      "ner": 743,
      "point": 744,
      "kes": 745,
      "ase": 746,
      "manag": 747,
      "led": 748,
      "sign": 749,
      "consu": 750,
      "japanese": 751,
      "against": 752,
      "does": 753,
      "income": 754,
      "adv": 755,
      "soci": 756,
      "show": 757,
      "ick": 758,
      "issue": 759,
      "mat": 760,
      "reven": 761,
      "peri": 762,
      "four": 763,
      "ics": 764,
      "products": 765,
      "used": 766,
      "requ": 767,
      "ween": 768,
      "head": 769,
      "world": 770,
      "char": 771,
      "estim": 772,
      "ending": 773,
      "between": 774,
      "fell": 775,
      "land": 776,
      "accor": 777,
      "both": 778,
      "where": 779,
      "ports": 780,
      "congress": 781,
      "ional": 782,
      "lower": 783,
      "employ": 784,
      "ative": 785,
      "ily": 786,
      "vent": 787,
      "let": 788,
      "commit": 789,
      "ry": 790,
      "depart": 791,
      "funds": 792,
      "ces": 793,
      "markets": 794,
      "elect": 795,
      "istr": 796,
      "revenue": 797,
      "based": 798,
      "ves": 799,
      "computer": 800,
      "court": 801,
      "view": 802,
      "brit": 803,
      "search": 804,
      "international": 805,
      "close": 806,
      "then": 807,
      "should": 808,
      "small": 809,
      "develop": 810,
      "ues": 811,
      "ann": 812,
      "aid": 813,
      "average": 814,
      "fl": 815,
      "tech": 816,
      "drop": 817,
      "ful": 818,
      "during": 819,
      "eu": 820,
      "ministr": 821,
      "wr": 822,
      "stre": 823,
      "lines": 824,
      "another": 825,
      "foreign": 826,
      "credit": 827,
      "agree": 828,
      "purch": 829,
      "ied": 830,
      "ten": 831,
      "total": 832,
      "higher": 833,
      "spokes": 834,
      "rel": 835,
      "reported": 836,
      "debt": 837,
      "ists": 838,
      "sever": 839,
      "mor": 840,
      "common": 841,
      "how": 842,
      "redu": 843,
      "commun": 844,
      "sou": 845,
      "including": 846,
      "among": 847,
      "ib": 848,
      "vice": 849,
      "ants": 850,
      "being": 851,
      "each": 852,
      "hn": 853,
      "him": 854,
      "according": 855,
      "euro": 856,
      "insurance": 857,
      "anno": 858,
      "need": 859,
      "announ": 860,
      "col": 861,
      "ep": 862,
      "san": 863,
      "trade": 864,
      "sider": 865,
      "dif": 866,
      "reed": 867,
      "remain": 868,
      "polit": 869,
      "manage": 870,
      "pers": 871,
      "research": 872,
      "agen": 873,
      "associ": 874,
      "alth": 875,
      "use": 876,
      "past": 877,
      "ular": 878,
      "operations": 879,
      "five": 880,
      "lit": 881,
      "llow": 882,
      "rece": 883,
      "ior": 884,
      "num": 885,
      "department": 886,
      "look": 887,
      "sale": 888,
      "ibut": 889,
      "wever": 890,
      "accoun": 891,
      "however": 892,
      "institut": 893,
      "tak": 894,
      "ben": 895,
      "sim": 896,
      "ange": 897,
      "ern": 898,
      "addition": 899,
      "sold": 900,
      "plans": 901,
      "want": 902,
      "ward": 903,
      "certain": 904,
      "economic": 905,
      "hu": 906,
      "move": 907,
      "ving": 908,
      "tele": 909,
      "meet": 910,
      "press": 911,
      "tim": 912,
      "yo": 913,
      "help": 914,
      "fur": 915,
      "holders": 916,
      "management": 917,
      "consider": 918,
      "every": 919,
      "hal": 920,
      "think": 921,
      "iday": 922,
      "europe": 923,
      "ask": 924,
      "second": 925,
      "growth": 926,
      "home": 927,
      "corpor": 928,
      "treas": 929,
      "ready": 930,
      "mot": 931,
      "issues": 932,
      "increase": 933,
      "term": 934,
      "bush": 935,
      "ga": 936,
      "aper": 937,
      "struct": 938,
      "jud": 939,
      "met": 940,
      "banks": 941,
      "vious": 942,
      "several": 943,
      "mers": 944,
      "yen": 945,
      "return": 946,
      "sted": 947,
      "viet": 948,
      "pet": 949,
      "asse": 950,
      "oil": 951,
      "called": 952,
      "ceed": 953,
      "eng": 954,
      "sol": 955,
      "due": 956,
      "news": 957,
      "follow": 958,
      "tail": 959,
      "east": 960,
      "posed": 961,
      "franc": 962,
      "john": 963,
      "power": 964,
      "ired": 965,
      "treasury": 966,
      "bar": 967,
      "few": 968,
      "pon": 969,
      "row": 970,
      "suc": 971,
      "tee": 972,
      "play": 973,
      "ref": 974,
      "ins": 975,
      "control": 976,
      "street": 977,
      "sl": 978,
      "trans": 979,
      "health": 980,
      "polic": 981,
      "cash": 982,
      "io": 983,
      "old": 984,
      "administr": 985,
      "compet": 986,
      "level": 987,
      "sure": 988,
      "costs": 989,
      "annual": 990,
      "might": 991,
      "aren": 992,
      "mi": 993,
      "strong": 994,
      "friday": 995,
      "dam": 996,
      "ising": 997,
      "aff": 998,
      "support": 999,
      "city": 1000,
      "hand": 1001,
      "ks": 1002,
      "open": 1003,
      "director": 1004,
      "quake": 1005,
      "traders": 1006,
      "number": 1007,
      "see": 1008,
      "beli": 1009,
      "del": 1010,
      "ved": 1011,
      "recor": 1012,
      "six": 1013,
      "ones": 1014,
      "dem": 1015,
      "soviet": 1016,
      "futures": 1017,
      "nam": 1018,
      "wa": 1019,
      "ised": 1020,
      "office": 1021,
      "added": 1022,
      "special": 1023,
      "run": 1024,
      "ifor": 1025,
      "former": 1026,
      "califor": 1027,
      "effect": 1028,
      "californ": 1029,
      "ford": 1030,
      "ately": 1031,
      "possi": 1032,
      "fam": 1033,
      "clear": 1034,
      "oc": 1035,
      "vol": 1036,
      "officer": 1037,
      "ship": 1038,
      "short": 1039,
      "brok": 1040,
      "ufact": 1041,
      "already": 1042,
      "manufact": 1043,
      "test": 1044,
      "previous": 1045,
      "services": 1046,
      "az": 1047,
      "amo": 1048,
      "least": 1049,
      "assets": 1050,
      "record": 1051,
      "california": 1052,
      "ply": 1053,
      "wall": 1054,
      "operating": 1055,
      "ious": 1056,
      "onal": 1057,
      "spokesman": 1058,
      "als": 1059,
      "commer": 1060,
      "resul": 1061,
      "agency": 1062,
      "half": 1063,
      "oct": 1064,
      "partic": 1065,
      "british": 1066,
      "going": 1067,
      "start": 1068,
      "too": 1069,
      "gest": 1070,
      "case": 1071,
      "cli": 1072,
      "ized": 1073,
      "value": 1074,
      "men": 1075,
      "mber": 1076,
      "ptem": 1077,
      "septem": 1078,
      "september": 1079,
      "fac": 1080,
      "same": 1081,
      "declin": 1082,
      "mach": 1083,
      "my": 1084,
      "ission": 1085,
      "until": 1086,
      "period": 1087,
      "cla": 1088,
      "ential": 1089,
      "auto": 1090,
      "union": 1091,
      "stake": 1092,
      "south": 1093,
      "sw": 1094,
      "ug": 1095,
      "pric": 1096,
      "approv": 1097,
      "ators": 1098,
      "agreement": 1099,
      "likely": 1100,
      "today": 1101,
      "project": 1102,
      "little": 1103,
      "committee": 1104,
      "ued": 1105,
      "vir": 1106,
      "maker": 1107,
      "claim": 1108,
      "mil": 1109,
      "here": 1110,
      "cl": 1111,
      "ss": 1112,
      "distr": 1113,
      "effor": 1114,
      "cus": 1115,
      "spec": 1116,
      "aug": 1117,
      "gold": 1118,
      "ights": 1119,
      "fall": 1120,
      "cept": 1121,
      "priv": 1122,
      "custo": 1123,
      "whe": 1124,
      "comple": 1125,
      "present": 1126,
      "came": 1127,
      "stud": 1128,
      "service": 1129,
      "know": 1130,
      "aro": 1131,
      "agreed": 1132,
      "bert": 1133,
      "order": 1134,
      "vers": 1135,
      "canad": 1136,
      "der": 1137,
      "nolo": 1138,
      "position": 1139,
      "technolo": 1140,
      "ense": 1141,
      "estate": 1142,
      "drug": 1143,
      "earth": 1144,
      "demand": 1145,
      "ners": 1146,
      "reser": 1147,
      "results": 1148,
      "appro": 1149,
      "administration": 1150,
      "self": 1151,
      "sing": 1152,
      "ages": 1153,
      "vert": 1154,
      "enter": 1155,
      "without": 1156,
      "country": 1157,
      "employe": 1158,
      "ded": 1159,
      "right": 1160,
      "reach": 1161,
      "ney": 1162,
      "indic": 1163,
      "great": 1164,
      "mort": 1165,
      "economy": 1166,
      "acquis": 1167,
      "problems": 1168,
      "corporate": 1169,
      "around": 1170,
      "hip": 1171,
      "seem": 1172,
      "life": 1173,
      "offering": 1174,
      "clu": 1175,
      "hard": 1176,
      "firms": 1177,
      "junk": 1178,
      "top": 1179,
      "production": 1180,
      "regul": 1181,
      "mic": 1182,
      "ansa": 1183,
      "seek": 1184,
      "transa": 1185,
      "posal": 1186,
      "opt": 1187,
      "largest": 1188,
      "result": 1189,
      "loans": 1190,
      "import": 1191,
      "buying": 1192,
      "industrial": 1193,
      "policy": 1194,
      "care": 1195,
      "strate": 1196,
      "ends": 1197,
      "political": 1198,
      "fail": 1199,
      "demo": 1200,
      "dow": 1201,
      "democr": 1202,
      "although": 1203,
      "aged": 1204,
      "place": 1205,
      "changes": 1206,
      "increased": 1207,
      "whether": 1208,
      "wat": 1209,
      "memb": 1210,
      "compared": 1211,
      "members": 1212,
      "gas": 1213,
      "sy": 1214,
      "allow": 1215,
      "notes": 1216,
      "ought": 1217,
      "ways": 1218,
      "recently": 1219,
      "arent": 1220,
      "cover": 1221,
      "nov": 1222,
      "held": 1223,
      "ob": 1224,
      "proposal": 1225,
      "ult": 1226,
      "further": 1227,
      "bur": 1228,
      "side": 1229,
      "begin": 1230,
      "ints": 1231,
      "gains": 1232,
      "mortg": 1233,
      "fig": 1234,
      "ru": 1235,
      "abor": 1236,
      "found": 1237,
      "den": 1238,
      "wide": 1239,
      "force": 1240,
      "plant": 1241,
      "ived": 1242,
      "volu": 1243,
      "proper": 1244,
      "fic": 1245,
      "ash": 1246,
      "ames": 1247,
      "monday": 1248,
      "yet": 1249,
      "ata": 1250,
      "continue": 1251,
      "standing": 1252,
      "lond": 1253,
      "nat": 1254,
      "isco": 1255,
      "london": 1256,
      "cast": 1257,
      "ot": 1258,
      "ications": 1259,
      "quest": 1260,
      "invol": 1261,
      "losses": 1262,
      "blo": 1263,
      "points": 1264,
      "takeover": 1265,
      "volume": 1266,
      "systems": 1267,
      "fu": 1268,
      "ime": 1269,
      "ild": 1270,
      "loan": 1271,
      "limit": 1272,
      "posite": 1273,
      "august": 1274,
      "paper": 1275,
      "sug": 1276,
      "ltd": 1277,
      "selling": 1278,
      "data": 1279,
      "itions": 1280,
      "ability": 1281,
      "subsid": 1282,
      "differ": 1283,
      "bor": 1284,
      "gre": 1285,
      "ri": 1286,
      "ston": 1287,
      "judge": 1288,
      "must": 1289,
      "ned": 1290,
      "tex": 1291,
      "ines": 1292,
      "ington": 1293,
      "fis": 1294,
      "mean": 1295,
      "action": 1296,
      "commission": 1297,
      "expects": 1298,
      "divid": 1299,
      "benef": 1300,
      "priced": 1301,
      "free": 1302,
      "suit": 1303,
      "trust": 1304,
      "food": 1305,
      "keep": 1306,
      "cit": 1307,
      "slow": 1308,
      "times": 1309,
      "pack": 1310,
      "activ": 1311,
      "possible": 1312,
      "hear": 1313,
      "mag": 1314,
      "announced": 1315,
      "declined": 1316,
      "earthquake": 1317,
      "meas": 1318,
      "ually": 1319,
      "workers": 1320,
      "purchase": 1321,
      "white": 1322,
      "ize": 1323,
      "ization": 1324,
      "technology": 1325,
      "fiscal": 1326,
      "rul": 1327,
      "lot": 1328,
      "ivers": 1329,
      "writ": 1330,
      "orders": 1331,
      "francisco": 1332,
      "agu": 1333,
      "igation": 1334,
      "weeks": 1335,
      "senate": 1336,
      "chem": 1337,
      "advert": 1338,
      "prom": 1339,
      "respon": 1340,
      "making": 1341,
      "dy": 1342,
      "senior": 1343,
      "bs": 1344,
      "paid": 1345,
      "become": 1346,
      "composite": 1347,
      "bit": 1348,
      "businesses": 1349,
      "problem": 1350,
      "development": 1351,
      "commercial": 1352,
      "sci": 1353,
      "chin": 1354,
      "reflect": 1355,
      "area": 1356,
      "sum": 1357,
      "ably": 1358,
      "give": 1359,
      "coup": 1360,
      "organ": 1361,
      "comment": 1362,
      "estimated": 1363,
      "nal": 1364,
      "nearly": 1365,
      "usu": 1366,
      "makers": 1367,
      "building": 1368,
      "dou": 1369,
      "wash": 1370,
      "series": 1371,
      "association": 1372,
      "chemical": 1373,
      "icago": 1374,
      "chicago": 1375,
      "na": 1376,
      "stead": 1377,
      "rest": 1378,
      "prote": 1379,
      "legis": 1380,
      "democrat": 1381,
      "bal": 1382,
      "took": 1383,
      "prove": 1384,
      "bre": 1385,
      "ds": 1386,
      "hur": 1387,
      "ung": 1388,
      "ample": 1389,
      "nine": 1390,
      "retail": 1391,
      "ley": 1392,
      "lawy": 1393,
      "employees": 1394,
      "jones": 1395,
      "your": 1396,
      "tel": 1397,
      "holding": 1398,
      "ft": 1399,
      "tv": 1400,
      "seas": 1401,
      "shar": 1402,
      "broad": 1403,
      "attr": 1404,
      "auth": 1405,
      "standard": 1406,
      "ron": 1407,
      "rup": 1408,
      "ivid": 1409,
      "fran": 1410,
      "decline": 1411,
      "design": 1412,
      "hour": 1413,
      "partners": 1414,
      "ither": 1415,
      "labor": 1416,
      "rights": 1417,
      "bud": 1418,
      "risk": 1419,
      "often": 1420,
      "tober": 1421,
      "later": 1422,
      "latest": 1423,
      "october": 1424,
      "amount": 1425,
      "eas": 1426,
      "pac": 1427,
      "inform": 1428,
      "process": 1429,
      "example": 1430,
      "offered": 1431,
      "individ": 1432,
      "success": 1433,
      "acquisition": 1434,
      "individual": 1435,
      "sent": 1436,
      "tues": 1437,
      "america": 1438,
      "meeting": 1439,
      "tuesday": 1440,
      "ging": 1441,
      "pat": 1442,
      "reason": 1443,
      "da": 1444,
      "rich": 1445,
      "sit": 1446,
      "texas": 1447,
      "pite": 1448,
      "weak": 1449,
      "despite": 1450,
      "pot": 1451,
      "changed": 1452,
      "provid": 1453,
      "currently": 1454,
      "giv": 1455,
      "represent": 1456,
      "others": 1457,
      "executives": 1458,
      "budget": 1459,
      "rise": 1460,
      "once": 1461,
      "ross": 1462,
      "proposed": 1463,
      "heav": 1464,
      "steel": 1465,
      "washington": 1466,
      "pacific": 1467,
      "ool": 1468,
      "une": 1469,
      "tra": 1470,
      "never": 1471,
      "better": 1472,
      "school": 1473,
      "ural": 1474,
      "nego": 1475,
      "got": 1476,
      "negoti": 1477,
      "win": 1478,
      "univers": 1479,
      "cho": 1480,
      "investor": 1481,
      "build": 1482,
      "king": 1483,
      "kno": 1484,
      "spending": 1485,
      "future": 1486,
      "author": 1487,
      "deli": 1488,
      "geor": 1489,
      "private": 1490,
      "ju": 1491,
      "pan": 1492,
      "ster": 1493,
      "almost": 1494,
      "robert": 1495,
      "19": 1496,
      "ator": 1497,
      "publish": 1498,
      "cret": 1499,
      "communications": 1500,
      "received": 1501,
      "damage": 1502,
      "via": 1503,
      "terms": 1504,
      "legal": 1505,
      "states": 1506,
      "ically": 1507,
      "appear": 1508,
      "named": 1509,
      "mortgage": 1510,
      "rupt": 1511,
      "restruct": 1512,
      "phone": 1513,
      "magaz": 1514,
      "role": 1515,
      "particular": 1516,
      "ko": 1517,
      "rep": 1518,
      "charge": 1519,
      "ctions": 1520,
      "black": 1521,
      "filed": 1522,
      "customers": 1523,
      "tok": 1524,
      "within": 1525,
      "decision": 1526,
      "equip": 1527,
      "information": 1528,
      "dre": 1529,
      "ilities": 1530,
      "boo": 1531,
      "appe": 1532,
      "include": 1533,
      "defense": 1534,
      "camp": 1535,
      "init": 1536,
      "ety": 1537,
      "division": 1538,
      "tell": 1539,
      "financing": 1540,
      "ath": 1541,
      "ling": 1542,
      "che": 1543,
      "purchas": 1544,
      "subsidi": 1545,
      "ix": 1546,
      "pen": 1547,
      "enough": 1548,
      "began": 1549,
      "crit": 1550,
      "continued": 1551,
      "wed": 1552,
      "post": 1553,
      "woman": 1554,
      "network": 1555,
      "struction": 1556,
      "mid": 1557,
      "icip": 1558,
      "outstanding": 1559,
      "trying": 1560,
      "infl": 1561,
      "orney": 1562,
      "envir": 1563,
      "told": 1564,
      "ively": 1565,
      "banking": 1566,
      "attorney": 1567,
      "equipment": 1568,
      "environ": 1569,
      "ral": 1570,
      "oft": 1571,
      "equity": 1572,
      "full": 1573,
      "face": 1574,
      "colu": 1575,
      "local": 1576,
      "mod": 1577,
      "lio": 1578,
      "folio": 1579,
      "portfolio": 1580,
      "industries": 1581,
      "warner": 1582,
      "ale": 1583,
      "mental": 1584,
      "consumer": 1585,
      "dropped": 1586,
      "potential": 1587,
      "hous": 1588,
      "james": 1589,
      "ple": 1590,
      "sc": 1591,
      "icit": 1592,
      "secret": 1593,
      "joint": 1594,
      "makes": 1595,
      "programs": 1596,
      "united": 1597,
      "dollars": 1598,
      "0s": 1599,
      "har": 1600,
      "computers": 1601,
      "transaction": 1602,
      "july": 1603,
      "ctor": 1604,
      "ordin": 1605,
      "european": 1606,
      "dav": 1607,
      "separ": 1608,
      "adjust": 1609,
      "abort": 1610,
      "using": 1611,
      "finance": 1612,
      "step": 1613,
      "signific": 1614,
      "account": 1615,
      "following": 1616,
      "broker": 1617,
      "away": 1618,
      "jagu": 1619,
      "vision": 1620,
      "best": 1621,
      "ift": 1622,
      "provide": 1623,
      "western": 1624,
      "consult": 1625,
      "ibuted": 1626,
      "tokyo": 1627,
      "inflation": 1628,
      "jaguar": 1629,
      "ran": 1630,
      "sco": 1631,
      "trou": 1632,
      "improve": 1633,
      "find": 1634,
      "settle": 1635,
      "additional": 1636,
      "gm": 1637,
      "sed": 1638,
      "soon": 1639,
      "calls": 1640,
      "managers": 1641,
      "personal": 1642,
      "gg": 1643,
      "shareholders": 1644,
      "leaders": 1645,
      "important": 1646,
      "known": 1647,
      "aw": 1648,
      "eve": 1649,
      "tar": 1650,
      "instead": 1651,
      "ution": 1652,
      "charges": 1653,
      "family": 1654,
      "claims": 1655,
      "university": 1656,
      "field": 1657,
      "units": 1658,
      "bell": 1659,
      "coming": 1660,
      "tru": 1661,
      "avail": 1662,
      "spect": 1663,
      "soft": 1664,
      "ys": 1665,
      "stic": 1666,
      "abo": 1667,
      "ified": 1668,
      "produc": 1669,
      "ness": 1670,
      "sour": 1671,
      "things": 1672,
      "construction": 1673,
      "march": 1674,
      "sched": 1675,
      "taken": 1676,
      "significant": 1677,
      "pend": 1678,
      "range": 1679,
      "ilar": 1680,
      "prob": 1681,
      "compl": 1682,
      "marketing": 1683,
      "dealers": 1684,
      "manager": 1685,
      "similar": 1686,
      "pil": 1687,
      "tries": 1688,
      "pract": 1689,
      "perfor": 1690,
      "ties": 1691,
      "itor": 1692,
      "brand": 1693,
      "bills": 1694,
      "asked": 1695,
      "engine": 1696,
      "mc": 1697,
      "isions": 1698,
      "ulation": 1699,
      "increasing": 1700,
      "cir": 1701,
      "night": 1702,
      "rev": 1703,
      "attem": 1704,
      "ensive": 1705,
      "june": 1706,
      "whose": 1707,
      "calif": 1708,
      "base": 1709,
      "north": 1710,
      "believe": 1711,
      "happ": 1712,
      "miss": 1713,
      "ping": 1714,
      "pass": 1715,
      "ane": 1716,
      "ison": 1717,
      "sept": 1718,
      "advertising": 1719,
      "above": 1720,
      "below": 1721,
      "experi": 1722,
      "lies": 1723,
      "body": 1724,
      "raise": 1725,
      "flo": 1726,
      "ters": 1727,
      "sav": 1728,
      "lost": 1729,
      "posted": 1730,
      "marks": 1731,
      "getting": 1732,
      "related": 1733,
      "question": 1734,
      "vict": 1735,
      "thr": 1736,
      "ched": 1737,
      "team": 1738,
      "emer": 1739,
      "space": 1740,
      "medi": 1741,
      "slight": 1742,
      "china": 1743,
      "available": 1744,
      "pact": 1745,
      "pred": 1746,
      "stores": 1747,
      "ips": 1748,
      "discus": 1749,
      "rather": 1750,
      "german": 1751,
      "fourth": 1752,
      "class": 1753,
      "hit": 1754,
      "jum": 1755,
      "idence": 1756,
      "contracts": 1757,
      "require": 1758,
      "owners": 1759,
      "included": 1760,
      "security": 1761,
      "electron": 1762,
      "cation": 1763,
      "mes": 1764,
      "stant": 1765,
      "appoint": 1766,
      "margin": 1767,
      "ival": 1768,
      "boston": 1769,
      "options": 1770,
      "figures": 1771,
      "restructuring": 1772,
      "republic": 1773,
      "reports": 1774,
      "alter": 1775,
      "quick": 1776,
      "mrs": 1777,
      "volat": 1778,
      "phil": 1779,
      "subsidiary": 1780,
      "hop": 1781,
      "left": 1782,
      "ister": 1783,
      "noted": 1784,
      "believ": 1785,
      "organization": 1786,
      "ism": 1787,
      "secut": 1788,
      "resign": 1789,
      "working": 1790,
      "meanwhile": 1791,
      "bad": 1792,
      "nes": 1793,
      "book": 1794,
      "center": 1795,
      "countries": 1796,
      "diffic": 1797,
      "manufactur": 1798,
      "canada": 1799,
      "iam": 1800,
      "stop": 1801,
      "along": 1802,
      "arily": 1803,
      "william": 1804,
      "prefer": 1805,
      "angeles": 1806,
      "effort": 1807,
      "dividend": 1808,
      "abortion": 1809,
      "savings": 1810,
      "bought": 1811,
      "vis": 1812,
      "itary": 1813,
      "itself": 1814,
      "express": 1815,
      "dome": 1816,
      "bled": 1817,
      "cases": 1818,
      "statement": 1819,
      "approved": 1820,
      "probably": 1821,
      "hist": 1822,
      "lish": 1823,
      "staff": 1824,
      "expl": 1825,
      "pop": 1826,
      "percent": 1827,
      "growing": 1828,
      "ibm": 1829,
      "block": 1830,
      "break": 1831,
      "lawyers": 1832,
      "thur": 1833,
      "seven": 1834,
      "david": 1835,
      "kid": 1836,
      "uation": 1837,
      "road": 1838,
      "rodu": 1839,
      "lyn": 1840,
      "cell": 1841,
      "key": 1842,
      "introdu": 1843,
      "increases": 1844,
      "gained": 1845,
      "reached": 1846,
      "secretary": 1847,
      "restr": 1848,
      "ody": 1849,
      "airlines": 1850,
      "operation": 1851,
      "cars": 1852,
      "payments": 1853,
      "colle": 1854,
      "transport": 1855,
      "efforts": 1856,
      "bay": 1857,
      "either": 1858,
      "fast": 1859,
      "ham": 1860,
      "child": 1861,
      "thern": 1862,
      "hol": 1863,
      "germany": 1864,
      "advanc": 1865,
      "domestic": 1866,
      "list": 1867,
      "independ": 1868,
      "deficit": 1869,
      "announce": 1870,
      "jour": 1871,
      "near": 1872,
      "cop": 1873,
      "pound": 1874,
      "feel": 1875,
      "talks": 1876,
      "fully": 1877,
      "name": 1878,
      "journal": 1879,
      "rill": 1880,
      "ories": 1881,
      "proceed": 1882,
      "ension": 1883,
      "reduce": 1884,
      "taking": 1885,
      "performan": 1886,
      "uary": 1887,
      "rele": 1888,
      "ened": 1889,
      "arbit": 1890,
      "icle": 1891,
      "having": 1892,
      "saying": 1893,
      "cru": 1894,
      "groups": 1895,
      "leading": 1896,
      "venture": 1897,
      "previously": 1898,
      "reserve": 1899,
      "different": 1900,
      "boost": 1901,
      "arbitr": 1902,
      "parent": 1903,
      "comb": 1904,
      "plun": 1905,
      "party": 1906,
      "counter": 1907,
      "typ": 1908,
      "telephone": 1909,
      "approval": 1910,
      "given": 1911,
      "ever": 1912,
      "fear": 1913,
      "mal": 1914,
      "thom": 1915,
      "ener": 1916,
      "conver": 1917,
      "termin": 1918,
      "looking": 1919,
      "eastern": 1920,
      "succeed": 1921,
      "suggest": 1922,
      "fair": 1923,
      "erial": 1924,
      "lled": 1925,
      "owned": 1926,
      "profits": 1927,
      "guar": 1928,
      "backed": 1929,
      "mbia": 1930,
      "material": 1931,
      "manufacturing": 1932,
      "frank": 1933,
      "initial": 1934,
      "schedul": 1935,
      "gl": 1936,
      "doing": 1937,
      "active": 1938,
      "biggest": 1939,
      "canadian": 1940,
      "green": 1941,
      "target": 1942,
      "room": 1943,
      "investments": 1944,
      "helped": 1945,
      "acquired": 1946,
      "goods": 1947,
      "slightly": 1948,
      "gi": 1949,
      "itive": 1950,
      "coll": 1951,
      "poor": 1952,
      "bankrupt": 1953,
      "raised": 1954,
      "directors": 1955,
      "strategy": 1956,
      "aign": 1957,
      "jan": 1958,
      "dest": 1959,
      "depos": 1960,
      "discoun": 1961,
      "machines": 1962,
      "measure": 1963,
      "campaign": 1964,
      "ike": 1965,
      "ni": 1966,
      "sk": 1967,
      "ware": 1968,
      "why": 1969,
      "imum": 1970,
      "plants": 1971,
      "profess": 1972,
      "person": 1973,
      "institute": 1974,
      "television": 1975,
      "military": 1976,
      "percentage": 1977,
      "threat": 1978,
      "confer": 1979,
      "stral": 1980,
      "plac": 1981,
      "austral": 1982,
      "airline": 1983,
      "medical": 1984,
      "clients": 1985,
      "seeking": 1986,
      "performance": 1987,
      "guaran": 1988,
      "lation": 1989,
      "limin": 1990,
      "surpr": 1991,
      "electric": 1992,
      "britain": 1993,
      "study": 1994,
      "property": 1995,
      "heavy": 1996,
      "energy": 1997,
      "jr": 1998,
      "alle": 1999,
      "interests": 2000,
      "selves": 2001,
      "single": 2002,
      "cies": 2003,
      "fav": 2004,
      "mass": 2005,
      "ero": 2006,
      "ences": 2007,
      "argu": 2008,
      "something": 2009,
      "minor": 2010,
      "currency": 2011,
      "estimates": 2012,
      "remains": 2013,
      "mix": 2014,
      "failed": 2015,
      "magazine": 2016,
      "particularly": 2017,
      "ball": 2018,
      "tend": 2019,
      "var": 2020,
      "went": 2021,
      "inal": 2022,
      "reco": 2023,
      "edu": 2024,
      "fees": 2025,
      "premi": 2026,
      "gener": 2027,
      "job": 2028,
      "levels": 2029,
      "wait": 2030,
      "famil": 2031,
      "completed": 2032,
      "limited": 2033,
      "bankruptcy": 2034,
      "hong": 2035,
      "kind": 2036,
      "conf": 2037,
      "suf": 2038,
      "hael": 2039,
      "affect": 2040,
      "vote": 2041,
      "includes": 2042,
      "attle": 2043,
      "advis": 2044,
      "michael": 2045,
      "complain": 2046,
      "difficult": 2047,
      "gn": 2048,
      "rat": 2049,
      "treat": 2050,
      "espe": 2051,
      "que": 2052,
      "quo": 2053,
      "push": 2054,
      "substant": 2055,
      "young": 2056,
      "district": 2057,
      "activity": 2058,
      "legislation": 2059,
      "substantial": 2060,
      "fren": 2061,
      "reti": 2062,
      "toward": 2063,
      "comes": 2064,
      "mex": 2065,
      "merrill": 2066,
      "holder": 2067,
      "maintain": 2068,
      "event": 2069,
      "columbia": 2070,
      "attempt": 2071,
      "bach": 2072,
      "dig": 2073,
      "stat": 2074,
      "exist": 2075,
      "viol": 2076,
      "nas": 2077,
      "wants": 2078,
      "ering": 2079,
      "commod": 2080,
      "accept": 2081,
      "newsp": 2082,
      "ify": 2083,
      "pread": 2084,
      "fri": 2085,
      "else": 2086,
      "surve": 2087,
      "parts": 2088,
      "assist": 2089,
      "apparent": 2090,
      "expand": 2091,
      "institutions": 2092,
      "solid": 2093,
      "reserves": 2094,
      "member": 2095,
      "qual": 2096,
      "prim": 2097,
      "concerns": 2098,
      "huge": 2099,
      "onald": 2100,
      "responsi": 2101,
      "scient": 2102,
      "independent": 2103,
      "scr": 2104,
      "ino": 2105,
      "bring": 2106,
      "brid": 2107,
      "owns": 2108,
      "motor": 2109,
      "water": 2110,
      "involved": 2111,
      "lynch": 2112,
      "scheduled": 2113,
      "kong": 2114,
      "really": 2115,
      "outside": 2116,
      "anta": 2117,
      "pressure": 2118,
      "buyers": 2119,
      "issued": 2120,
      "particip": 2121,
      "covered": 2122,
      "transportation": 2123,
      "ril": 2124,
      "always": 2125,
      "tou": 2126,
      "bear": 2127,
      "shop": 2128,
      "april": 2129,
      "quart": 2130,
      "basis": 2131,
      "brother": 2132,
      "subject": 2133,
      "longer": 2134,
      "human": 2135,
      "strateg": 2136,
      "truck": 2137,
      "producers": 2138,
      "quarters": 2139,
      "30": 2140,
      "dail": 2141,
      "fix": 2142,
      "lar": 2143,
      "ined": 2144,
      "nel": 2145,
      "decid": 2146,
      "cially": 2147,
      "leader": 2148,
      "delay": 2149,
      "environmental": 2150,
      "brokerage": 2151,
      "especially": 2152,
      "daily": 2153,
      "avo": 2154,
      "itors": 2155,
      "means": 2156,
      "princ": 2157,
      "prime": 2158,
      "usually": 2159,
      "canc": 2160,
      "mas": 2161,
      "pain": 2162,
      "item": 2163,
      "ises": 2164,
      "ablish": 2165,
      "establish": 2166,
      "crim": 2167,
      "disclosed": 2168,
      "adds": 2169,
      "worth": 2170,
      "themselves": 2171,
      "acquire": 2172,
      "competition": 2173,
      "projects": 2174,
      "richard": 2175,
      "favor": 2176,
      "ient": 2177,
      "lack": 2178,
      "xel": 2179,
      "areas": 2180,
      "const": 2181,
      "conserv": 2182,
      "impact": 2183,
      "auction": 2184,
      "central": 2185,
      "ances": 2186,
      "drexel": 2187,
      "arbitrage": 2188,
      "conference": 2189,
      "pick": 2190,
      "sat": 2191,
      "ills": 2192,
      "note": 2193,
      "holdings": 2194,
      "largely": 2195,
      "estimate": 2196,
      "started": 2197,
      "hours": 2198,
      "nav": 2199,
      "immedi": 2200,
      "forecast": 2201,
      "enses": 2202,
      "supply": 2203,
      "reduced": 2204,
      "brokers": 2205,
      "seems": 2206,
      "french": 2207,
      "light": 2208,
      "reau": 2209,
      "fort": 2210,
      "bureau": 2211,
      "laun": 2212,
      "course": 2213,
      "majority": 2214,
      "morgan": 2215,
      "accounts": 2216,
      "rules": 2217,
      "thus": 2218,
      "recess": 2219,
      "stu": 2220,
      "exclu": 2221,
      "necess": 2222,
      "aps": 2223,
      "tible": 2224,
      "congressional": 2225,
      "needed": 2226,
      "wednes": 2227,
      "quickly": 2228,
      "wednesday": 2229,
      "review": 2230,
      "seen": 2231,
      "detail": 2232,
      "prosecut": 2233,
      "liqu": 2234,
      "interview": 2235,
      "distribut": 2236,
      "settlement": 2237,
      "survey": 2238,
      "fixed": 2239,
      "cam": 2240,
      "done": 2241,
      "van": 2242,
      "ang": 2243,
      "sector": 2244,
      "dece": 2245,
      "pri": 2246,
      "traded": 2247,
      "generally": 2248,
      "yields": 2249,
      "community": 2250,
      "peters": 2251,
      "appropri": 2252,
      "december": 2253,
      "cing": 2254,
      "flu": 2255,
      "ii": 2256,
      "chr": 2257,
      "chain": 2258,
      "death": 2259,
      "iring": 2260,
      "exper": 2261,
      "lied": 2262,
      "crash": 2263,
      "letter": 2264,
      "benefit": 2265,
      "volatility": 2266,
      "manufacturers": 2267,
      "cat": 2268,
      "sday": 2269,
      "stay": 2270,
      "roll": 2271,
      "earson": 2272,
      "shearson": 2273,
      "model": 2274,
      "trial": 2275,
      "women": 2276,
      "contain": 2277,
      "carry": 2278,
      "carri": 2279,
      "receive": 2280,
      "approach": 2281,
      "beginning": 2282,
      "thursday": 2283,
      "cil": 2284,
      "glo": 2285,
      "nic": 2286,
      "vil": 2287,
      "atives": 2288,
      "stren": 2289,
      "sec": 2290,
      "prospect": 2291,
      "social": 2292,
      "imports": 2293,
      "allen": 2294,
      "focus": 2295,
      "wood": 2296,
      "serious": 2297,
      "underwrit": 2298,
      "thought": 2299,
      "simply": 2300,
      "usual": 2301,
      "situation": 2302,
      "cancer": 2303,
      "streng": 2304,
      "eight": 2305,
      "asset": 2306,
      "plc": 2307,
      "store": 2308,
      "planned": 2309,
      "taxes": 2310,
      "turned": 2311,
      "media": 2312,
      "entertain": 2313,
      "natural": 2314,
      "protection": 2315,
      "convertible": 2316,
      "premium": 2317,
      "sess": 2318,
      "uing": 2319,
      "ark": 2320,
      "roy": 2321,
      "icted": 2322,
      "veraged": 2323,
      "filing": 2324,
      "wanted": 2325,
      "democratic": 2326,
      "history": 2327,
      "recession": 2328,
      "ahead": 2329,
      "cand": 2330,
      "pted": 2331,
      "rally": 2332,
      "ery": 2333,
      "atory": 2334,
      "veh": 2335,
      "required": 2336,
      "discuss": 2337,
      "haps": 2338,
      "nu": 2339,
      "ots": 2340,
      "pond": 2341,
      "rock": 2342,
      "veto": 2343,
      "became": 2344,
      "respond": 2345,
      "acy": 2346,
      "duct": 2347,
      "perhaps": 2348,
      "produce": 2349,
      "returns": 2350,
      "summer": 2351,
      "education": 2352,
      "aim": 2353,
      "fre": 2354,
      "tren": 2355,
      "moody": 2356,
      "acc": 2357,
      "aster": 2358,
      "aud": 2359,
      "caused": 2360,
      "draw": 2361,
      "guber": 2362,
      "closing": 2363,
      "tempor": 2364,
      "showed": 2365,
      "considered": 2366,
      "benefits": 2367,
      "partnership": 2368,
      "software": 2369,
      "advanced": 2370,
      "flow": 2371,
      "town": 2372,
      "bel": 2373,
      "aging": 2374,
      "exports": 2375,
      "resour": 2376,
      "anything": 2377,
      "france": 2378,
      "rought": 2379,
      "directly": 2380,
      "creditors": 2381,
      "travel": 2382,
      "delivery": 2383,
      "housing": 2384,
      "brothers": 2385,
      "christ": 2386,
      "fill": 2387,
      "gia": 2388,
      "pending": 2389,
      "ring": 2390,
      "rap": 2391,
      "relat": 2392,
      "atl": 2393,
      "ama": 2394,
      "host": 2395,
      "iega": 2396,
      "justice": 2397,
      "indeed": 2398,
      "supp": 2399,
      "noriega": 2400,
      "defend": 2401,
      "request": 2402,
      "francs": 2403,
      "hurt": 2404,
      "season": 2405,
      "georgia": 2406,
      "jumped": 2407,
      "preferred": 2408,
      "avoid": 2409,
      "princip": 2410,
      "card": 2411,
      "cbs": 2412,
      "wid": 2413,
      "log": 2414,
      "improv": 2415,
      "offset": 2416,
      "hope": 2417,
      "tradition": 2418,
      "bankers": 2419,
      "prevent": 2420,
      "max": 2421,
      "americans": 2422,
      "earned": 2423,
      "talk": 2424,
      "continuing": 2425,
      "climb": 2426,
      "floor": 2427,
      "entertainment": 2428,
      "donald": 2429,
      "fight": 2430,
      "ured": 2431,
      "nothing": 2432,
      "shareholder": 2433,
      "anticip": 2434,
      "minimum": 2435,
      "funding": 2436,
      "stein": 2437,
      "smith": 2438,
      "game": 2439,
      "george": 2440,
      "children": 2441,
      "ken": 2442,
      "toge": 2443,
      "aph": 2444,
      "aft": 2445,
      "merger": 2446,
      "announcement": 2447,
      "quality": 2448,
      "together": 2449,
      "don": 2450,
      "pit": 2451,
      "opport": 2452,
      "minister": 2453,
      "evidence": 2454,
      "built": 2455,
      "smaller": 2456,
      "spokeswoman": 2457,
      "machine": 2458,
      "pilots": 2459,
      "restrict": 2460,
      "digital": 2461,
      "constitut": 2462,
      "ville": 2463,
      "opportun": 2464,
      "ele": 2465,
      "ze": 2466,
      "indi": 2467,
      "resol": 2468,
      "determin": 2469,
      "irs": 2470,
      "prior": 2471,
      "article": 2472,
      "holds": 2473,
      "continues": 2474,
      "created": 2475,
      "himself": 2476,
      "complete": 2477,
      "sharply": 2478,
      "bon": 2479,
      "ier": 2480,
      "mur": 2481,
      "rad": 2482,
      "ried": 2483,
      "editor": 2484,
      "super": 2485,
      "moved": 2486,
      "acity": 2487,
      "aker": 2488,
      "partner": 2489,
      "overseas": 2490,
      "graph": 2491,
      "capacity": 2492,
      "ption": 2493,
      "legislat": 2494,
      "collap": 2495,
      "resources": 2496,
      "jury": 2497,
      "ny": 2498,
      "spr": 2499,
      "size": 2500,
      "won": 2501,
      "unchanged": 2502,
      "ici": 2503,
      "lying": 2504,
      "conne": 2505,
      "conduct": 2506,
      "actually": 2507,
      "feat": 2508,
      "payment": 2509,
      "tons": 2510,
      "developed": 2511,
      "hugo": 2512,
      "borrow": 2513,
      "source": 2514,
      "thrift": 2515,
      "liquid": 2516,
      "kill": 2517,
      "tre": 2518,
      "encour": 2519,
      "ased": 2520,
      "cons": 2521,
      "willing": 2522,
      "ground": 2523,
      "sense": 2524,
      "philip": 2525,
      "apparently": 2526,
      "ave": 2527,
      "erc": 2528,
      "entire": 2529,
      "defin": 2530,
      "exerc": 2531,
      "istic": 2532,
      "quarterly": 2533,
      "conditions": 2534,
      "regulators": 2535,
      "transactions": 2536,
      "questions": 2537,
      "broadcast": 2538,
      "kidder": 2539,
      "retire": 2540,
      "session": 2541,
      "civ": 2542,
      "mp": 2543,
      "wage": 2544,
      "reli": 2545,
      "forced": 2546,
      "across": 2547,
      "plus": 2548,
      "gency": 2549,
      "swit": 2550,
      "version": 2551,
      "promise": 2552,
      "designed": 2553,
      "hopes": 2554,
      "believes": 2555,
      "giant": 2556,
      "fle": 2557,
      "reject": 2558,
      "dev": 2559,
      "export": 2560,
      "extra": 2561,
      "moves": 2562,
      "pose": 2563,
      "gel": 2564,
      "bot": 2565,
      "closely": 2566,
      "protect": 2567,
      "kore": 2568,
      "popular": 2569,
      "decided": 2570,
      "bi": 2571,
      "blu": 2572,
      "dan": 2573,
      "ler": 2574,
      "ming": 2575,
      "recomm": 2576,
      "sach": 2577,
      "somet": 2578,
      "strike": 2579,
      "final": 2580,
      "partly": 2581,
      "minut": 2582,
      "produced": 2583,
      "circ": 2584,
      "explain": 2585,
      "battle": 2586,
      "hind": 2587,
      "ible": 2588,
      "mut": 2589,
      "uncertain": 2590,
      "orig": 2591,
      "ently": 2592,
      "behind": 2593,
      "except": 2594,
      "provision": 2595,
      "economists": 2596,
      "paying": 2597,
      "rising": 2598,
      "write": 2599,
      "associates": 2600,
      "running": 2601,
      "watch": 2602,
      "response": 2603,
      "coupon": 2604,
      "sharp": 2605,
      "separate": 2606,
      "brought": 2607,
      "nar": 2608,
      "star": 2609,
      "ention": 2610,
      "conclu": 2611,
      "agan": 2612,
      "modest": 2613,
      "wel": 2614,
      "live": 2615,
      "prep": 2616,
      "guide": 2617,
      "valued": 2618,
      "consumers": 2619,
      "shows": 2620,
      "january": 2621,
      "spread": 2622,
      "unless": 2623,
      "leveraged": 2624,
      "supre": 2625,
      "appl": 2626,
      "offices": 2627,
      "spent": 2628,
      "spend": 2629,
      "jobs": 2630,
      "sett": 2631,
      "sony": 2632,
      "ricane": 2633,
      "employment": 2634,
      "effective": 2635,
      "amoun": 2636,
      "allowed": 2637,
      "democrats": 2638,
      "hurricane": 2639,
      "newspaper": 2640,
      "friend": 2641,
      "supreme": 2642,
      "bber": 2643,
      "gor": 2644,
      "hman": 2645,
      "mun": 2646,
      "influ": 2647,
      "lear": 2648,
      "train": 2649,
      "kept": 2650,
      "idea": 2651,
      "expenses": 2652,
      "morning": 2653,
      "agencies": 2654,
      "peter": 2655,
      "followed": 2656,
      "opened": 2657,
      "specific": 2658,
      "rule": 2659,
      "ficient": 2660,
      "attract": 2661,
      "suffer": 2662,
      "bachev": 2663,
      "civil": 2664,
      "gorbachev": 2665,
      "municip": 2666,
      "ires": 2667,
      "inte": 2668,
      "stan": 2669,
      "ening": 2670,
      "lip": 2671,
      "actual": 2672,
      "disappoint": 2673,
      "debent": 2674,
      "possib": 2675,
      "emergency": 2676,
      "guarante": 2677,
      "alleged": 2678,
      "tough": 2679,
      "elimin": 2680,
      "onto": 2681,
      "saw": 2682,
      "access": 2683,
      "whole": 2684,
      "pretax": 2685,
      "bran": 2686,
      "park": 2687,
      "reduction": 2688,
      "discount": 2689,
      "bridge": 2690,
      "cable": 2691,
      "dut": 2692,
      "dink": 2693,
      "non": 2694,
      "pension": 2695,
      "ony": 2696,
      "seg": 2697,
      "seat": 2698,
      "whit": 2699,
      "moving": 2700,
      "acce": 2701,
      "aul": 2702,
      "figure": 2703,
      "package": 2704,
      "deliver": 2705,
      "victim": 2706,
      "various": 2707,
      "quoted": 2708,
      "mexic": 2709,
      "dinkins": 2710,
      "fred": 2711,
      "hut": 2712,
      "oun": 2713,
      "reagan": 2714,
      "ariz": 2715,
      "cher": 2716,
      "poll": 2717,
      "resident": 2718,
      "uses": 2719,
      "pret": 2720,
      "disput": 2721,
      "uel": 2722,
      "ished": 2723,
      "economist": 2724,
      "contribut": 2725,
      "warr": 2726,
      "farmers": 2727,
      "signed": 2728,
      "matter": 2729,
      "lett": 2730,
      "needs": 2731,
      "facilities": 2732,
      "introduced": 2733,
      "placed": 2734,
      "necessary": 2735,
      "mutual": 2736,
      "ey": 2737,
      "flat": 2738,
      "pict": 2739,
      "alli": 2740,
      "exceed": 2741,
      "moreover": 2742,
      "headquarters": 2743,
      "commerce": 2744,
      "critic": 2745,
      "spring": 2746,
      "wal": 2747,
      "decade": 2748,
      "county": 2749,
      "works": 2750,
      "poland": 2751,
      "regard": 2752,
      "instance": 2753,
      "gave": 2754,
      "greater": 2755,
      "activities": 2756,
      "ruling": 2757,
      "plunge": 2758,
      "hund": 2759,
      "jack": 2760,
      "qint": 2761,
      "rating": 2762,
      "thous": 2763,
      "icles": 2764,
      "section": 2765,
      "leave": 2766,
      "lehman": 2767,
      "print": 2768,
      "hotel": 2769,
      "trades": 2770,
      "mail": 2771,
      "matur": 2772,
      "elected": 2773,
      "ministry": 2774,
      "researchers": 2775,
      "johnson": 2776,
      "barrel": 2777,
      "option": 2778,
      "appears": 2779,
      "margins": 2780,
      "resigned": 2781,
      "hundred": 2782,
      "qintex": 2783,
      "thousand": 2784,
      "ease": 2785,
      "fire": 2786,
      "iar": 2787,
      "sports": 2788,
      "santa": 2789,
      "ona": 2790,
      "challen": 2791,
      "forces": 2792,
      "compar": 2793,
      "neg": 2794,
      "portion": 2795,
      "investig": 2796,
      "declines": 2797,
      "institutional": 2798,
      "takes": 2799,
      "separately": 2800,
      "australia": 2801,
      "familiar": 2802,
      "existing": 2803,
      "date": 2804,
      "fety": 2805,
      "niss": 2806,
      "instru": 2807,
      "sequ": 2808,
      "safety": 2809,
      "conn": 2810,
      "consolid": 2811,
      "suits": 2812,
      "track": 2813,
      "overall": 2814,
      "craft": 2815,
      "preci": 2816,
      "contributed": 2817,
      "valley": 2818,
      "machin": 2819,
      "obtain": 2820,
      "houses": 2821,
      "passed": 2822,
      "thomas": 2823,
      "branch": 2824,
      "nissan": 2825,
      "die": 2826,
      "og": 2827,
      "omon": 2828,
      "pie": 2829,
      "tum": 2830,
      "retain": 2831,
      "ets": 2832,
      "imes": 2833,
      "trader": 2834,
      "salomon": 2835,
      "crib": 2836,
      "managing": 2837,
      "southern": 2838,
      "widely": 2839,
      "appeal": 2840,
      "conservative": 2841,
      "sometimes": 2842,
      "baker": 2843,
      "slip": 2844,
      "leav": 2845,
      "susp": 2846,
      "teach": 2847,
      "doz": 2848,
      "cuts": 2849,
      "provisions": 2850,
      "create": 2851,
      "tests": 2852,
      "authority": 2853,
      "electronic": 2854,
      "candid": 2855,
      "narrow": 2856,
      "lou": 2857,
      "oh": 2858,
      "tw": 2859,
      "yond": 2860,
      "assu": 2861,
      "assum": 2862,
      "beyond": 2863,
      "mob": 2864,
      "opposition": 2865,
      "hosp": 2866,
      "merch": 2867,
      "subordin": 2868,
      "deals": 2869,
      "clean": 2870,
      "totaled": 2871,
      "indicated": 2872,
      "properties": 2873,
      "cited": 2874,
      "reflecting": 2875,
      "provided": 2876,
      "provides": 2877,
      "engineering": 2878,
      "electronics": 2879,
      "professional": 2880,
      "larger": 2881,
      "relatively": 2882,
      "improved": 2883,
      "debentures": 2884,
      "hospital": 2885,
      "mill": 2886,
      "ination": 2887,
      "chip": 2888,
      "goes": 2889,
      "fron": 2890,
      "raising": 2891,
      "policies": 2892,
      "hands": 2893,
      "speculation": 2894,
      "measures": 2895,
      "materials": 2896,
      "none": 2897,
      "rated": 2898,
      "reform": 2899,
      "sty": 2900,
      "alone": 2901,
      "offers": 2902,
      "afric": 2903,
      "internal": 2904,
      "renz": 2905,
      "council": 2906,
      "highly": 2907,
      "motors": 2908,
      "insist": 2909,
      "successful": 2910,
      "individuals": 2911,
      "purchases": 2912,
      "scow": 2913,
      "brands": 2914,
      "proceeds": 2915,
      "rapid": 2916,
      "climbed": 2917,
      "blue": 2918,
      "negative": 2919,
      "cross": 2920,
      "pence": 2921,
      "rum": 2922,
      "sun": 2923,
      "smo": 2924,
      "tro": 2925,
      "tap": 2926,
      "adding": 2927,
      "image": 2928,
      "domin": 2929,
      "actions": 2930,
      "feet": 2931,
      "investigation": 2932,
      "planning": 2933,
      "brown": 2934,
      "attack": 2935,
      "mitted": 2936,
      "daq": 2937,
      "nasdaq": 2938,
      "integr": 2939,
      "stanley": 2940,
      "hutton": 2941,
      "fa": 2942,
      "ipe": 2943,
      "mits": 2944,
      "tor": 2945,
      "usa": 2946,
      "invent": 2947,
      "story": 2948,
      "tour": 2949,
      "moun": 2950,
      "nove": 2951,
      "ault": 2952,
      "someone": 2953,
      "cray": 2954,
      "grad": 2955,
      "disaster": 2956,
      "laws": 2957,
      "flor": 2958,
      "affair": 2959,
      "miles": 2960,
      "customer": 2961,
      "students": 2962,
      "lawyer": 2963,
      "panel": 2964,
      "check": 2965,
      "practice": 2966,
      "recogn": 2967,
      "treatment": 2968,
      "appropriations": 2969,
      "carrier": 2970,
      "amounts": 2971,
      "municipal": 2972,
      "aur": 2973,
      "jer": 2974,
      "ses": 2975,
      "sil": 2976,
      "tes": 2977,
      "stem": 2978,
      "aries": 2979,
      "arma": 2980,
      "utical": 2981,
      "dead": 2982,
      "ceutical": 2983,
      "finally": 2984,
      "chance": 2985,
      "positions": 2986,
      "worked": 2987,
      "lawson": 2988,
      "lawmakers": 2989,
      "interested": 2990,
      "pharma": 2991,
      "publicly": 2992,
      "charles": 2993,
      "relations": 2994,
      "everyone": 2995,
      "drugs": 2996,
      "regulatory": 2997,
      "double": 2998,
      "restaur": 2999,
      "scen": 3000,
      "consultant": 3001,
      "louis": 3002,
      "pharmaceutical": 3003,
      "ray": 3004,
      "forms": 3005,
      "conv": 3006,
      "neither": 3007,
      "docu": 3008,
      "brad": 3009,
      "jose": 3010,
      "police": 3011,
      "bids": 3012,
      "advant": 3013,
      "bench": 3014,
      "soviets": 3015,
      "doub": 3016,
      "attributed": 3017,
      "standards": 3018,
      "franch": 3019,
      "negotiations": 3020,
      "republican": 3021,
      "minority": 3022,
      "tender": 3023,
      "commodity": 3024,
      "experts": 3025,
      "rejected": 3026,
      "settled": 3027,
      "cul": 3028,
      "dist": 3029,
      "pho": 3030,
      "slu": 3031,
      "replace": 3032,
      "reorganization": 3033,
      "ads": 3034,
      "urban": 3035,
      "promot": 3036,
      "ationship": 3037,
      "moment": 3038,
      "apers": 3039,
      "affil": 3040,
      "expectations": 3041,
      "attention": 3042,
      "wrong": 3043,
      "relationship": 3044,
      "accounting": 3045,
      "competitors": 3046,
      "swiss": 3047,
      "syl": 3048,
      "ulture": 3049,
      "otc": 3050,
      "eventually": 3051,
      "strength": 3052,
      "affili": 3053,
      "bers": 3054,
      "hatt": 3055,
      "rid": 3056,
      "sought": 3057,
      "repe": 3058,
      "sound": 3059,
      "manhatt": 3060,
      "grand": 3061,
      "mostly": 3062,
      "gene": 3063,
      "join": 3064,
      "drive": 3065,
      "factors": 3066,
      "northern": 3067,
      "society": 3068,
      "remaining": 3069,
      "considering": 3070,
      "petrole": 3071,
      "dividends": 3072,
      "heavily": 3073,
      "adjusted": 3074,
      "retirement": 3075,
      "mexico": 3076,
      "manhattan": 3077,
      "petroleum": 3078,
      "ament": 3079,
      "lic": 3080,
      "obl": 3081,
      "spl": 3082,
      "insu": 3083,
      "stations": 3084,
      "chap": 3085,
      "etary": 3086,
      "aggress": 3087,
      "traff": 3088,
      "output": 3089,
      "anyone": 3090,
      "ifts": 3091,
      "monetary": 3092,
      "ght": 3093,
      "spir": 3094,
      "profitable": 3095,
      "controvers": 3096,
      "techn": 3097,
      "opening": 3098,
      "easy": 3099,
      "giving": 3100,
      "magazines": 3101,
      "ownership": 3102,
      "typically": 3103,
      "waiting": 3104,
      "immediately": 3105,
      "trend": 3106,
      "november": 3107,
      "split": 3108,
      "chapter": 3109,
      "ely": 3110,
      "gul": 3111,
      "kr": 3112,
      "lend": 3113,
      "native": 3114,
      "pent": 3115,
      "itu": 3116,
      "agon": 3117,
      "exchanges": 3118,
      "describ": 3119,
      "events": 3120,
      "pursu": 3121,
      "risks": 3122,
      "film": 3123,
      "developing": 3124,
      "litigation": 3125,
      "chemicals": 3126,
      "improvement": 3127,
      "visit": 3128,
      "copper": 3129,
      "scientists": 3130,
      "items": 3131,
      "criminal": 3132,
      "opportunity": 3133,
      "victims": 3134,
      "gulf": 3135,
      "pentagon": 3136,
      "gives": 3137,
      "hud": 3138,
      "mission": 3139,
      "nb": 3140,
      "rout": 3141,
      "moscow": 3142,
      "neigh": 3143,
      "iff": 3144,
      "iving": 3145,
      "iel": 3146,
      "presents": 3147,
      "usx": 3148,
      "aircraft": 3149,
      "monthly": 3150,
      "cert": 3151,
      "bask": 3152,
      "phen": 3153,
      "regional": 3154,
      "bidding": 3155,
      "concerned": 3156,
      "everything": 3157,
      "motive": 3158,
      "structure": 3159,
      "england": 3160,
      "occur": 3161,
      "acquisitions": 3162,
      "fuj": 3163,
      "college": 3164,
      "studi": 3165,
      "minutes": 3166,
      "lloy": 3167,
      "mich": 3168,
      "sor": 3169,
      "swe": 3170,
      "scal": 3171,
      "tit": 3172,
      "isers": 3173,
      "icts": 3174,
      "secu": 3175,
      "formed": 3176,
      "ares": 3177,
      "lose": 3178,
      "convent": 3179,
      "igence": 3180,
      "excess": 3181,
      "noon": 3182,
      "respect": 3183,
      "homes": 3184,
      "decl": 3185,
      "gets": 3186,
      "owner": 3187,
      "speed": 3188,
      "clearly": 3189,
      "trouble": 3190,
      "deposit": 3191,
      "details": 3192,
      "aimed": 3193,
      "principal": 3194,
      "traditional": 3195,
      "election": 3196,
      "lloyd": 3197,
      "secured": 3198,
      "egg": 3199,
      "ium": 3200,
      "pas": 3201,
      "wis": 3202,
      "ency": 3203,
      "coast": 3204,
      "sam": 3205,
      "thatcher": 3206,
      "amend": 3207,
      "audi": 3208,
      "cker": 3209,
      "foot": 3210,
      "apple": 3211,
      "equal": 3212,
      "controlled": 3213,
      "match": 3214,
      "certainly": 3215,
      "runs": 3216,
      "mortgages": 3217,
      "sources": 3218,
      "experience": 3219,
      "predict": 3220,
      "responsib": 3221,
      "restrictions": 3222,
      "broadcasting": 3223,
      "original": 3224,
      "maturity": 3225,
      "front": 3226,
      "ibas": 3227,
      "oak": 3228,
      "paul": 3229,
      "sort": 3230,
      "wro": 3231,
      "wers": 3232,
      "refer": 3233,
      "edward": 3234,
      "true": 3235,
      "opin": 3236,
      "plast": 3237,
      "ultim": 3238,
      "parties": 3239,
      "crime": 3240,
      "grade": 3241,
      "fraud": 3242,
      "span": 3243,
      "paribas": 3244,
      "regular": 3245,
      "debate": 3246,
      "controls": 3247,
      "facility": 3248,
      "specul": 3249,
      "chinese": 3250,
      "couple": 3251,
      "penn": 3252,
      "ordinary": 3253,
      "troubled": 3254,
      "increasingly": 3255,
      "requirements": 3256,
      "believed": 3257,
      "combined": 3258,
      "primarily": 3259,
      "global": 3260,
      "thousands": 3261,
      "subordinated": 3262,
      "certific": 3263,
      "wrote": 3264,
      "ror": 3265,
      "ret": 3266,
      "refin": 3267,
      "deput": 3268,
      "trig": 3269,
      "incent": 3270,
      "corn": 3271,
      "mond": 3272,
      "bles": 3273,
      "mayor": 3274,
      "charact": 3275,
      "players": 3276,
      "burn": 3277,
      "involving": 3278,
      "sugar": 3279,
      "difference": 3280,
      "grew": 3281,
      "weakness": 3282,
      "ratings": 3283,
      "vehicles": 3284,
      "nuclear": 3285,
      "temporary": 3286,
      "consist": 3287,
      "prepared": 3288,
      "segment": 3289,
      "ohio": 3290,
      "franchise": 3291,
      "bby": 3292,
      "ech": 3293,
      "fit": 3294,
      "hig": 3295,
      "ked": 3296,
      "mus": 3297,
      "olin": 3298,
      "task": 3299,
      "intel": 3300,
      "stor": 3301,
      "alty": 3302,
      "tomor": 3303,
      "sey": 3304,
      "chips": 3305,
      "movie": 3306,
      "tried": 3307,
      "hest": 3308,
      "resist": 3309,
      "quite": 3310,
      "mary": 3311,
      "centers": 3312,
      "ansion": 3313,
      "producer": 3314,
      "cutting": 3315,
      "mae": 3316,
      "operate": 3317,
      "roughly": 3318,
      "expansion": 3319,
      "signal": 3320,
      "virt": 3321,
      "goldman": 3322,
      "syn": 3323,
      "choice": 3324,
      "publishing": 3325,
      "environment": 3326,
      "scand": 3327,
      "revised": 3328,
      "statist": 3329,
      "responsible": 3330,
      "prosecutors": 3331,
      "korea": 3332,
      "arizona": 3333,
      "technical": 3334,
      "highest": 3335,
      "tomorrow": 3336,
      "cities": 3337,
      "ewe": 3338,
      "nations": 3339,
      "vy": 3340,
      "ince": 3341,
      "ilty": 3342,
      "cos": 3343,
      "listed": 3344,
      "achie": 3345,
      "ishi": 3346,
      "served": 3347,
      "sells": 3348,
      "subishi": 3349,
      "guilty": 3350,
      "continent": 3351,
      "install": 3352,
      "expensive": 3353,
      "mitsubishi": 3354,
      "numbers": 3355,
      "powerful": 3356,
      "damaged": 3357,
      "declining": 3358,
      "automotive": 3359,
      "employee": 3360,
      "slowing": 3361,
      "consulting": 3362,
      "released": 3363,
      "plunged": 3364,
      "painewe": 3365,
      "launched": 3366,
      "nbc": 3367,
      "painewebber": 3368,
      "tin": 3369,
      "intell": 3370,
      "reme": 3371,
      "trip": 3372,
      "amid": 3373,
      "manville": 3374,
      "bling": 3375,
      "voted": 3376,
      "extreme": 3377,
      "region": 3378,
      "advance": 3379,
      "corporations": 3380,
      "competitive": 3381,
      "failure": 3382,
      "schools": 3383,
      "buildings": 3384,
      "sterling": 3385,
      "fairly": 3386,
      "assistant": 3387,
      "collapse": 3388,
      "intelligence": 3389,
      "10": 3390,
      "80s": 3391,
      "aco": 3392,
      "award": 3393,
      "cate": 3394,
      "dall": 3395,
      "eag": 3396,
      "gard": 3397,
      "hone": 3398,
      "mess": 3399,
      "squ": 3400,
      "vit": 3401,
      "represents": 3402,
      "arm": 3403,
      "coal": 3404,
      "agric": 3405,
      "shall": 3406,
      "aband": 3407,
      "boom": 3408,
      "losing": 3409,
      "poses": 3410,
      "putting": 3411,
      "insurers": 3412,
      "showing": 3413,
      "headed": 3414,
      "charged": 3415,
      "associated": 3416,
      "played": 3417,
      "slowdown": 3418,
      "heart": 3419,
      "purchased": 3420,
      "colum": 3421,
      "steps": 3422,
      "republicans": 3423,
      "surprising": 3424,
      "recovery": 3425,
      "navigation": 3426,
      "radio": 3427,
      "toronto": 3428,
      "dallas": 3429,
      "dden": 3430,
      "gian": 3431,
      "hill": 3432,
      "paren": 3433,
      "ries": 3434,
      "xon": 3435,
      "station": 3436,
      "tom": 3437,
      "isra": 3438,
      "round": 3439,
      "core": 3440,
      "ida": 3441,
      "demon": 3442,
      "lock": 3443,
      "sudden": 3444,
      "proced": 3445,
      "exxon": 3446,
      "apart": 3447,
      "peau": 3448,
      "prud": 3449,
      "bol": 3450,
      "firmed": 3451,
      "voters": 3452,
      "maybe": 3453,
      "values": 3454,
      "divers": 3455,
      "signs": 3456,
      "effects": 3457,
      "citing": 3458,
      "balance": 3459,
      "predicted": 3460,
      "trucks": 3461,
      "exclus": 3462,
      "campeau": 3463,
      "devices": 3464,
      "sachs": 3465,
      "uncertainty": 3466,
      "hundreds": 3467,
      "dozen": 3468,
      "documents": 3469,
      "advantage": 3470,
      "dle": 3471,
      "frequ": 3472,
      "gar": 3473,
      "krenz": 3474,
      "lending": 3475,
      "osa": 3476,
      "unlike": 3477,
      "atch": 3478,
      "beat": 3479,
      "utilities": 3480,
      "wealth": 3481,
      "bul": 3482,
      "boe": 3483,
      "whom": 3484,
      "acknow": 3485,
      "mind": 3486,
      "surv": 3487,
      "genet": 3488,
      "brook": 3489,
      "paris": 3490,
      "issions": 3491,
      "sears": 3492,
      "ventures": 3493,
      "elections": 3494,
      "morris": 3495,
      "transfer": 3496,
      "faced": 3497,
      "complex": 3498,
      "advertisers": 3499,
      "reflects": 3500,
      "release": 3501,
      "fears": 3502,
      "affected": 3503,
      "primary": 3504,
      "underwriters": 3505,
      "indian": 3506,
      "dispute": 3507,
      "affairs": 3508,
      "traffic": 3509,
      "scale": 3510,
      "trigger": 3511,
      "acknowled": 3512,
      "breed": 3513,
      "ff": 3514,
      "hib": 3515,
      "xury": 3516,
      "zer": 3517,
      "unusual": 3518,
      "alan": 3519,
      "ctors": 3520,
      "erson": 3521,
      "shift": 3522,
      "trillion": 3523,
      "essential": 3524,
      "fewer": 3525,
      "bound": 3526,
      "century": 3527,
      "luxury": 3528,
      "lincol": 3529,
      "merc": 3530,
      "brief": 3531,
      "afternoon": 3532,
      "surged": 3533,
      "words": 3534,
      "strugg": 3535,
      "enterpr": 3536,
      "proposals": 3537,
      "reasons": 3538,
      "deposits": 3539,
      "nik": 3540,
      "mixte": 3541,
      "elsewhere": 3542,
      "launch": 3543,
      "constitutional": 3544,
      "icians": 3545,
      "exercise": 3546,
      "relief": 3547,
      "accepted": 3548,
      "doubt": 3549,
      "lincoln": 3550,
      "crop": 3551,
      "cds": 3552,
      "fun": 3553,
      "ients": 3554,
      "lay": 3555,
      "mac": 3556,
      "pal": 3557,
      "iling": 3558,
      "liability": 3559,
      "berg": 3560,
      "address": 3561,
      "throughout": 3562,
      "accord": 3563,
      "communist": 3564,
      "color": 3565,
      "annually": 3566,
      "faces": 3567,
      "golden": 3568,
      "falling": 3569,
      "significantly": 3570,
      "explor": 3571,
      "australian": 3572,
      "mixed": 3573,
      "adviser": 3574,
      "strategic": 3575,
      "established": 3576,
      "atlant": 3577,
      "residents": 3578,
      "pretty": 3579,
      "jersey": 3580,
      "neighbor": 3581,
      "virtually": 3582,
      "continental": 3583,
      "han": 3584,
      "hor": 3585,
      "hen": 3586,
      "lam": 3587,
      "pipe": 3588,
      "wit": 3589,
      "theless": 3590,
      "era": 3591,
      "renew": 3592,
      "enced": 3593,
      "arg": 3594,
      "aragu": 3595,
      "concent": 3596,
      "opposed": 3597,
      "aste": 3598,
      "acted": 3599,
      "febr": 3600,
      "anti": 3601,
      "positive": 3602,
      "worry": 3603,
      "sides": 3604,
      "normal": 3605,
      "metals": 3606,
      "healthy": 3607,
      "starting": 3608,
      "client": 3609,
      "hearing": 3610,
      "initi": 3611,
      "practices": 3612,
      "baseball": 3613,
      "alternative": 3614,
      "books": 3615,
      "copy": 3616,
      "glas": 3617,
      "substantially": 3618,
      "distribution": 3619,
      "nicaragu": 3620,
      "accused": 3621,
      "hostile": 3622,
      "supplies": 3623,
      "guidelines": 3624,
      "deputy": 3625,
      "lambert": 3626,
      "february": 3627,
      "gun": 3628,
      "ibe": 3629,
      "sir": 3630,
      "theat": 3631,
      "arrange": 3632,
      "lee": 3633,
      "location": 3634,
      "conced": 3635,
      "shut": 3636,
      "exam": 3637,
      "perform": 3638,
      "fine": 3639,
      "finished": 3640,
      "contrast": 3641,
      "mainfr": 3642,
      "factory": 3643,
      "telecommunications": 3644,
      "ordered": 3645,
      "seemed": 3646,
      "involve": 3647,
      "boosted": 3648,
      "appeared": 3649,
      "critics": 3650,
      "modern": 3651,
      "thrifts": 3652,
      "confidence": 3653,
      "defendants": 3654,
      "seats": 3655,
      "leaving": 3656,
      "benchmark": 3657,
      "opinion": 3658,
      "certificates": 3659,
      "apo": 3660,
      "ee": 3661,
      "fash": 3662,
      "fuel": 3663,
      "gers": 3664,
      "gone": 3665,
      "lor": 3666,
      "ustr": 3667,
      "adop": 3668,
      "living": 3669,
      "monitor": 3670,
      "gross": 3671,
      "mine": 3672,
      "decisions": 3673,
      "ideo": 3674,
      "highway": 3675,
      "weekend": 3676,
      "bigger": 3677,
      "mainly": 3678,
      "guard": 3679,
      "taxpay": 3680,
      "medic": 3681,
      "puts": 3682,
      "managed": 3683,
      "remained": 3684,
      "judges": 3685,
      "follows": 3686,
      "names": 3687,
      "pricing": 3688,
      "micro": 3689,
      "burgh": 3690,
      "representatives": 3691,
      "panama": 3692,
      "attorneys": 3693,
      "connect": 3694,
      "liquidity": 3695,
      "barrels": 3696,
      "instruments": 3697,
      "florida": 3698,
      "amendment": 3699,
      "fashion": 3700,
      "70s": 3701,
      "cs": 3702,
      "jur": 3703,
      "lf": 3704,
      "pace": 3705,
      "ram": 3706,
      "va": 3707,
      "theast": 3708,
      "orp": 3709,
      "enforce": 3710,
      "iled": 3711,
      "icorp": 3712,
      "sea": 3713,
      "semic": 3714,
      "illips": 3715,
      "aret": 3716,
      "finding": 3717,
      "grain": 3718,
      "decide": 3719,
      "surge": 3720,
      "stephen": 3721,
      "phillips": 3722,
      "earns": 3723,
      "reflected": 3724,
      "authorities": 3725,
      "1980s": 3726,
      "1970s": 3727,
      "blacks": 3728,
      "middle": 3729,
      "scot": 3730,
      "producing": 3731,
      "stopped": 3732,
      "crude": 3733,
      "families": 3734,
      "challenge": 3735,
      "conventional": 3736,
      "burnham": 3737,
      "synd": 3738,
      "parents": 3739,
      "semicon": 3740,
      "band": 3741,
      "jef": 3742,
      "tight": 3743,
      "select": 3744,
      "sage": 3745,
      "utility": 3746,
      "lobby": 3747,
      "sus": 3748,
      "exact": 3749,
      "soph": 3750,
      "soared": 3751,
      "neko": 3752,
      "abroad": 3753,
      "liber": 3754,
      "withdraw": 3755,
      "quot": 3756,
      "akes": 3757,
      "felt": 3758,
      "operates": 3759,
      "calcul": 3760,
      "understand": 3761,
      "drink": 3762,
      "carolin": 3763,
      "talking": 3764,
      "spot": 3765,
      "ibility": 3766,
      "furt": 3767,
      "older": 3768,
      "technolog": 3769,
      "obvious": 3770,
      "appeals": 3771,
      "leadership": 3772,
      "circu": 3773,
      "frankfurt": 3774,
      "models": 3775,
      "influence": 3776,
      "ounce": 3777,
      "slipped": 3778,
      "candidates": 3779,
      "style": 3780,
      "rumors": 3781,
      "insured": 3782,
      "demonstr": 3783,
      "nekoosa": 3784,
      "aero": 3785,
      "bat": 3786,
      "eth": 3787,
      "tick": 3788,
      "rebound": 3789,
      "stress": 3790,
      "sees": 3791,
      "verse": 3792,
      "abc": 3793,
      "gested": 3794,
      "hot": 3795,
      "hood": 3796,
      "interstate": 3797,
      "grant": 3798,
      "intended": 3799,
      "type": 3800,
      "courts": 3801,
      "caw": 3802,
      "houston": 3803,
      "wells": 3804,
      "condition": 3805,
      "letters": 3806,
      "meetings": 3807,
      "stronger": 3808,
      "suggested": 3809,
      "keeping": 3810,
      "patients": 3811,
      "purchasing": 3812,
      "mccaw": 3813,
      "immediate": 3814,
      "suspended": 3815,
      "africa": 3816,
      "studio": 3817,
      "oakland": 3818,
      "scandal": 3819,
      "statistics": 3820,
      "column": 3821,
      "prudential": 3822,
      "aerospace": 3823,
      "fann": 3824,
      "ky": 3825,
      "mca": 3826,
      "pages": 3827,
      "rust": 3828,
      "vies": 3829,
      "wif": 3830,
      "wond": 3831,
      "wise": 3832,
      "wang": 3833,
      "anim": 3834,
      "ons": 3835,
      "atic": 3836,
      "chur": 3837,
      "chry": 3838,
      "save": 3839,
      "compromise": 3840,
      "loc": 3841,
      "confirmed": 3842,
      "moder": 3843,
      "movies": 3844,
      "ductor": 3845,
      "goal": 3846,
      "mont": 3847,
      "prelimin": 3848,
      "voice": 3849,
      "italy": 3850,
      "direction": 3851,
      "assess": 3852,
      "equival": 3853,
      "collect": 3854,
      "sler": 3855,
      "studies": 3856,
      "consultants": 3857,
      "guarantee": 3858,
      "assistance": 3859,
      "shopping": 3860,
      "royal": 3861,
      "discussions": 3862,
      "determined": 3863,
      "piece": 3864,
      "twice": 3865,
      "joseph": 3866,
      "extremely": 3867,
      "abandon": 3868,
      "boeing": 3869,
      "fannie": 3870,
      "wife": 3871,
      "church": 3872,
      "chrysler": 3873,
      "preliminary": 3874,
      "crow": 3875,
      "file": 3876,
      "wake": 3877,
      "wish": 3878,
      "wild": 3879,
      "inner": 3880,
      "rey": 3881,
      "itrust": 3882,
      "coverage": 3883,
      "safe": 3884,
      "lywood": 3885,
      "ague": 3886,
      "meant": 3887,
      "mother": 3888,
      "antitrust": 3889,
      "user": 3890,
      "disclose": 3891,
      "buyer": 3892,
      "senators": 3893,
      "commitments": 3894,
      "flight": 3895,
      "structural": 3896,
      "democracy": 3897,
      "river": 3898,
      "citiz": 3899,
      "citicorp": 3900,
      "negotiating": 3901,
      "hollywood": 3902,
      "ratio": 3903,
      "satis": 3904,
      "training": 3905,
      "guarantees": 3906,
      "comparable": 3907,
      "silver": 3908,
      "declared": 3909,
      "argue": 3910,
      "awn": 3911,
      "bed": 3912,
      "eli": 3913,
      "iet": 3914,
      "iety": 3915,
      "wear": 3916,
      "alleg": 3917,
      "chev": 3918,
      "adium": 3919,
      "deep": 3920,
      "sures": 3921,
      "iron": 3922,
      "promo": 3923,
      "shown": 3924,
      "expo": 3925,
      "quiet": 3926,
      "upon": 3927,
      "ancy": 3928,
      "mining": 3929,
      "spin": 3930,
      "efficient": 3931,
      "joined": 3932,
      "steven": 3933,
      "lands": 3934,
      "movement": 3935,
      "asking": 3936,
      "records": 3937,
      "swings": 3938,
      "denied": 3939,
      "written": 3940,
      "jointly": 3941,
      "happen": 3942,
      "volatile": 3943,
      "succeeds": 3944,
      "suggests": 3945,
      "professor": 3946,
      "advisers": 3947,
      "navy": 3948,
      "fortun": 3949,
      "warrants": 3950,
      "usair": 3951,
      "mountain": 3952,
      "basket": 3953,
      "atlantic": 3954,
      "cd": 3955,
      "freed": 3956,
      "ij": 3957,
      "mgm": 3958,
      "erate": 3959,
      "rect": 3960,
      "tool": 3961,
      "isis": 3962,
      "rober": 3963,
      "beij": 3964,
      "comfort": 3965,
      "urday": 3966,
      "compens": 3967,
      "liament": 3968,
      "prison": 3969,
      "door": 3970,
      "iven": 3971,
      "kel": 3972,
      "merk": 3973,
      "crisis": 3974,
      "discovered": 3975,
      "counsel": 3976,
      "forest": 3977,
      "weekly": 3978,
      "drives": 3979,
      "word": 3980,
      "parliament": 3981,
      "agreements": 3982,
      "returned": 3983,
      "refused": 3984,
      "damages": 3985,
      "club": 3986,
      "regulations": 3987,
      "object": 3988,
      "telerate": 3989,
      "patent": 3990,
      "providing": 3991,
      "rooms": 3992,
      "saturday": 3993,
      "vehicle": 3994,
      "anticipated": 3995,
      "resolution": 3996,
      "recommend": 3997,
      "friendly": 3998,
      "alliance": 3999,
      "consolidated": 4000,
      "responsibility": 4001,
      "beijing": 4002,
      "ame": 4003,
      "bes": 4004,
      "bart": 4005,
      "cia": 4006,
      "dip": 4007,
      "games": 4008,
      "hy": 4009,
      "hung": 4010,
      "mis": 4011,
      "matt": 4012,
      "rs": 4013,
      "rare": 4014,
      "vac": 4015,
      "wil": 4016,
      "wlett": 4017,
      "reaction": 4018,
      "iture": 4019,
      "ica": 4020,
      "icial": 4021,
      "chase": 4022,
      "saatch": 4023,
      "ete": 4024,
      "ceiling": 4025,
      "hewlett": 4026,
      "lling": 4027,
      "plain": 4028,
      "ivity": 4029,
      "invested": 4030,
      "braz": 4031,
      "rence": 4032,
      "disk": 4033,
      "disci": 4034,
      "votes": 4035,
      "serve": 4036,
      "underlying": 4037,
      "worried": 4038,
      "supposed": 4039,
      "farm": 4040,
      "politics": 4041,
      "pressed": 4042,
      "helping": 4043,
      "thinks": 4044,
      "singapo": 4045,
      "packard": 4046,
      "dai": 4047,
      "representing": 4048,
      "published": 4049,
      "repair": 4050,
      "critical": 4051,
      "initially": 4052,
      "personnel": 4053,
      "switzer": 4054,
      "machinists": 4055,
      "categ": 4056,
      "square": 4057,
      "exploration": 4058,
      "scott": 4059,
      "carolina": 4060,
      "matters": 4061,
      "saatchi": 4062,
      "brazil": 4063,
      "discipl": 4064,
      "singapore": 4065,
      "switzerland": 4066,
      "coff": 4067,
      "ec": 4068,
      "lan": 4069,
      "rus": 4070,
      "rival": 4071,
      "sand": 4072,
      "yard": 4073,
      "ert": 4074,
      "edge": 4075,
      "army": 4076,
      "ila": 4077,
      "illegal": 4078,
      "beth": 4079,
      "load": 4080,
      "shed": 4081,
      "terior": 4082,
      "nobody": 4083,
      "apped": 4084,
      "lives": 4085,
      "acad": 4086,
      "bull": 4087,
      "stood": 4088,
      "operator": 4089,
      "setting": 4090,
      "adequ": 4091,
      "guage": 4092,
      "register": 4093,
      "views": 4094,
      "aids": 4095,
      "politicians": 4096,
      "looks": 4097,
      "shipping": 4098,
      "fallen": 4099,
      "entered": 4100,
      "membership": 4101,
      "organiz": 4102,
      "easily": 4103,
      "happened": 4104,
      "jump": 4105,
      "histor": 4106,
      "argued": 4107,
      "scientific": 4108,
      "bureaucr": 4109,
      "temporarily": 4110,
      "atlanta": 4111,
      "encourage": 4112,
      "extraordinary": 4113,
      "picture": 4114,
      "title": 4115,
      "audience": 4116,
      "ultimately": 4117,
      "coffee": 4118,
      "language": 4119,
      "bic": 4120,
      "gate": 4121,
      "hall": 4122,
      "ito": 4123,
      "mally": 4124,
      "ow": 4125,
      "pson": 4126,
      "phel": 4127,
      "tu": 4128,
      "tent": 4129,
      "inqu": 4130,
      "ank": 4131,
      "roth": 4132,
      "cham": 4133,
      "utious": 4134,
      "concept": 4135,
      "agents": 4136,
      "agues": 4137,
      "millions": 4138,
      "newly": 4139,
      "porter": 4140,
      "usion": 4141,
      "investing": 4142,
      "channel": 4143,
      "answer": 4144,
      "identified": 4145,
      "lawsuits": 4146,
      "worse": 4147,
      "reporting": 4148,
      "reporters": 4149,
      "siders": 4150,
      "costly": 4151,
      "cautious": 4152,
      "normally": 4153,
      "lowered": 4154,
      "specialists": 4155,
      "indicate": 4156,
      "covering": 4157,
      "observ": 4158,
      "nature": 4159,
      "publisher": 4160,
      "drew": 4161,
      "troubles": 4162,
      "fields": 4163,
      "resignation": 4164,
      "manufacturer": 4165,
      "expressed": 4166,
      "colleagues": 4167,
      "proceedings": 4168,
      "generation": 4169,
      "sufficient": 4170,
      "prospects": 4171,
      "filled": 4172,
      "suffered": 4173,
      "eye": 4174,
      "merchand": 4175,
      "photo": 4176,
      "controversial": 4177,
      "described": 4178,
      "giants": 4179,
      "taxpayers": 4180,
      "circuit": 4181,
      "phelan": 4182,
      "tentative": 4183,
      "inquir": 4184,
      "bla": 4185,
      "fal": 4186,
      "gs": 4187,
      "hi": 4188,
      "hart": 4189,
      "kin": 4190,
      "nard": 4191,
      "rand": 4192,
      "rjr": 4193,
      "video": 4194,
      "zo": 4195,
      "relu": 4196,
      "arch": 4197,
      "icate": 4198,
      "sets": 4199,
      "ides": 4200,
      "lets": 4201,
      "urged": 4202,
      "consecut": 4203,
      "shel": 4204,
      "heat": 4205,
      "amble": 4206,
      "weap": 4207,
      "outlook": 4208,
      "founder": 4209,
      "presence": 4210,
      "died": 4211,
      "display": 4212,
      "intends": 4213,
      "feder": 4214,
      "itect": 4215,
      "extent": 4216,
      "rail": 4217,
      "costa": 4218,
      "factor": 4219,
      "acquiring": 4220,
      "dealer": 4221,
      "techni": 4222,
      "stream": 4223,
      "simple": 4224,
      "ponents": 4225,
      "inside": 4226,
      "administrative": 4227,
      "student": 4228,
      "types": 4229,
      "pushed": 4230,
      "strategies": 4231,
      "expert": 4232,
      "carrying": 4233,
      "editorial": 4234,
      "danger": 4235,
      "concluded": 4236,
      "walk": 4237,
      "preciation": 4238,
      "rapidly": 4239,
      "aggressive": 4240,
      "israel": 4241,
      "adopted": 4242,
      "enforcement": 4243,
      "semiconductor": 4244,
      "technologies": 4245,
      "equivalent": 4246,
      "reluct": 4247,
      "architect": 4248,
      "consecutive": 4249,
      "fla": 4250,
      "hamp": 4251,
      "ka": 4252,
      "overs": 4253,
      "rac": 4254,
      "ride": 4255,
      "sque": 4256,
      "unable": 4257,
      "reput": 4258,
      "stage": 4259,
      "stick": 4260,
      "stearns": 4261,
      "enjo": 4262,
      "ensure": 4263,
      "roman": 4264,
      "ilvy": 4265,
      "ication": 4266,
      "cold": 4267,
      "cosm": 4268,
      "adel": 4269,
      "agent": 4270,
      "shap": 4271,
      "shire": 4272,
      "acts": 4273,
      "tied": 4274,
      "voting": 4275,
      "commissions": 4276,
      "genes": 4277,
      "basic": 4278,
      "offerings": 4279,
      "subscr": 4280,
      "phia": 4281,
      "raid": 4282,
      "household": 4283,
      "capitalization": 4284,
      "warned": 4285,
      "committed": 4286,
      "flag": 4287,
      "corporation": 4288,
      "metro": 4289,
      "metric": 4290,
      "solut": 4291,
      "slide": 4292,
      "specialty": 4293,
      "volution": 4294,
      "virgin": 4295,
      "claimed": 4296,
      "hearings": 4297,
      "philadel": 4298,
      "fresh": 4299,
      "graphics": 4300,
      "possibility": 4301,
      "guaranteed": 4302,
      "pictures": 4303,
      "ogilvy": 4304,
      "miller": 4305,
      "integrated": 4306,
      "restaurant": 4307,
      "repeated": 4308,
      "obligation": 4309,
      "pursue": 4310,
      "resistance": 4311,
      "garden": 4312,
      "enterprises": 4313,
      "freedom": 4314,
      "hampshire": 4315,
      "squee": 4316,
      "cosmet": 4317,
      "philadelphia": 4318,
      "\\/": 4319,
      "apol": 4320,
      "cig": 4321,
      "las": 4322,
      "mous": 4323,
      "scre": 4324,
      "waste": 4325,
      "throw": 4326,
      "unch": 4327,
      "reh": 4328,
      "reforms": 4329,
      "stain": 4330,
      "stances": 4331,
      "ormous": 4332,
      "enormous": 4333,
      "alu": 4334,
      "asia": 4335,
      "league": 4336,
      "comments": 4337,
      "dep": 4338,
      "confirm": 4339,
      "sustain": 4340,
      "mention": 4341,
      "limits": 4342,
      "empt": 4343,
      "chancell": 4344,
      "contends": 4345,
      "umstances": 4346,
      "worst": 4347,
      "extended": 4348,
      "phys": 4349,
      "speak": 4350,
      "realize": 4351,
      "rico": 4352,
      "reducing": 4353,
      "supported": 4354,
      "shipments": 4355,
      "privately": 4356,
      "knows": 4357,
      "differences": 4358,
      "retailers": 4359,
      "processing": 4360,
      "window": 4361,
      "appointed": 4362,
      "confident": 4363,
      "participants": 4364,
      "forecasts": 4365,
      "excluding": 4366,
      "christmas": 4367,
      "logical": 4368,
      "circumstances": 4369,
      "criticism": 4370,
      "assume": 4371,
      "music": 4372,
      "exposure": 4373,
      "roberts": 4374,
      "apolis": 4375,
      "cigaret": 4376,
      "chancellor": 4377,
      "cance": 4378,
      "culture": 4379,
      "gon": 4380,
      "gary": 4381,
      "lang": 4382,
      "male": 4383,
      "site": 4384,
      "unlikely": 4385,
      "ario": 4386,
      "aspect": 4387,
      "cooperation": 4388,
      "sex": 4389,
      "illy": 4390,
      "beer": 4391,
      "becoming": 4392,
      "begun": 4393,
      "consequ": 4394,
      "probe": 4395,
      "tern": 4396,
      "ami": 4397,
      "quant": 4398,
      "strip": 4399,
      "tsburgh": 4400,
      "ples": 4401,
      "luf": 4402,
      "users": 4403,
      "banco": 4404,
      "intent": 4405,
      "governments": 4406,
      "cath": 4407,
      "caution": 4408,
      "attitu": 4409,
      "creating": 4410,
      "ification": 4411,
      "warning": 4412,
      "mitche": 4413,
      "sche": 4414,
      "commitment": 4415,
      "miami": 4416,
      "career": 4417,
      "easier": 4418,
      "pattern": 4419,
      "harris": 4420,
      "ranging": 4421,
      "faster": 4422,
      "status": 4423,
      "favorable": 4424,
      "vania": 4425,
      "carriers": 4426,
      "pittsburgh": 4427,
      "collapsed": 4428,
      "nyse": 4429,
      "philipp": 4430,
      "warrant": 4431,
      "mobil": 4432,
      "mobile": 4433,
      "scenario": 4434,
      "sylvania": 4435,
      "affiliate": 4436,
      "lenders": 4437,
      "football": 4438,
      "pennsylvania": 4439,
      "character": 4440,
      "genetic": 4441,
      "brooks": 4442,
      "triggered": 4443,
      "breeden": 4444,
      "pipeline": 4445,
      "wonder": 4446,
      "hungary": 4447,
      "mitchell": 4448,
      "bail": 4449,
      "fare": 4450,
      "hills": 4451,
      "iat": 4452,
      "ience": 4453,
      "pa": 4454,
      "unemployment": 4455,
      "rein": 4456,
      "tower": 4457,
      "ita": 4458,
      "espread": 4459,
      "code": 4460,
      "seed": 4461,
      "beach": 4462,
      "dell": 4463,
      "iran": 4464,
      "abil": 4465,
      "peace": 4466,
      "bus": 4467,
      "martin": 4468,
      "otherwise": 4469,
      "grown": 4470,
      "banker": 4471,
      "posing": 4472,
      "surplus": 4473,
      "erick": 4474,
      "lawrence": 4475,
      "extend": 4476,
      "carried": 4477,
      "speech": 4478,
      "calling": 4479,
      "currencies": 4480,
      "jection": 4481,
      "default": 4482,
      "requires": 4483,
      "secondary": 4484,
      "barri": 4485,
      "slid": 4486,
      "seeing": 4487,
      "formerly": 4488,
      "facing": 4489,
      "foods": 4490,
      "heard": 4491,
      "ruled": 4492,
      "douglas": 4493,
      "retailing": 4494,
      "cells": 4495,
      "holiday": 4496,
      "quebe": 4497,
      "commodities": 4498,
      "newspapers": 4499,
      "friends": 4500,
      "widespread": 4501,
      "possibly": 4502,
      "branches": 4503,
      "tumbled": 4504,
      "father": 4505,
      "inventories": 4506,
      "brady": 4507,
      "iffs": 4508,
      "awarded": 4509,
      "messrs": 4510,
      "frequently": 4511,
      "neighborhood": 4512,
      "citizens": 4513,
      "academ": 4514,
      "dur": 4515,
      "gal": 4516,
      "gop": 4517,
      "hunt": 4518,
      "iw": 4519,
      "mand": 4520,
      "oth": 4521,
      "oline": 4522,
      "psy": 4523,
      "wing": 4524,
      "walter": 4525,
      "thin": 4526,
      "unsecured": 4527,
      "stable": 4528,
      "stories": 4529,
      "stadium": 4530,
      "veter": 4531,
      "deem": 4532,
      "sui": 4533,
      "suspect": 4534,
      "progress": 4535,
      "abody": 4536,
      "peabody": 4537,
      "stri": 4538,
      "feed": 4539,
      "merely": 4540,
      "oming": 4541,
      "caught": 4542,
      "taiw": 4543,
      "casual": 4544,
      "casino": 4545,
      "carries": 4546,
      "subcommittee": 4547,
      "turns": 4548,
      "turning": 4549,
      "apply": 4550,
      "expense": 4551,
      "employers": 4552,
      "stret": 4553,
      "playing": 4554,
      "slash": 4555,
      "handle": 4556,
      "specified": 4557,
      "approve": 4558,
      "seeks": 4559,
      "gasoline": 4560,
      "natives": 4561,
      "brewing": 4562,
      "attractive": 4563,
      "networks": 4564,
      "alternatives": 4565,
      "badly": 4566,
      "cellular": 4567,
      "massive": 4568,
      "expanded": 4569,
      "disappointing": 4570,
      "contributions": 4571,
      "bolster": 4572,
      "moderate": 4573,
      "observers": 4574,
      "merchandise": 4575,
      "taiwan": 4576,
      "bac": 4577,
      "bread": 4578,
      "gap": 4579,
      "hired": 4580,
      "mory": 4581,
      "sund": 4582,
      "vous": 4583,
      "uni": 4584,
      "repre": 4585,
      "orange": 4586,
      "enn": 4587,
      "tobac": 4588,
      "colo": 4589,
      "entrepre": 4590,
      "memory": 4591,
      "igno": 4592,
      "sole": 4593,
      "neur": 4594,
      "impossible": 4595,
      "yeargin": 4596,
      "acting": 4597,
      "fellow": 4598,
      "changing": 4599,
      "erald": 4600,
      "identify": 4601,
      "causing": 4602,
      "spain": 4603,
      "pulled": 4604,
      "guy": 4605,
      "race": 4606,
      "applied": 4607,
      "closer": 4608,
      "resume": 4609,
      "mbly": 4610,
      "nervous": 4611,
      "ibers": 4612,
      "metal": 4613,
      "assembly": 4614,
      "handling": 4615,
      "recorded": 4616,
      "blood": 4617,
      "prompt": 4618,
      "prompted": 4619,
      "steady": 4620,
      "pilot": 4621,
      "population": 4622,
      "surprised": 4623,
      "pushing": 4624,
      "bringing": 4625,
      "freight": 4626,
      "maxwell": 4627,
      "isticated": 4628,
      "daniel": 4629,
      "machinery": 4630,
      "storage": 4631,
      "nicaragua": 4632,
      "sophisticated": 4633,
      "allegations": 4634,
      "adequate": 4635,
      "sunday": 4636,
      "tobacco": 4637,
      "entrepreneur": 4638,
      "ba": 4639,
      "bio": 4640,
      "dict": 4641,
      "nix": 4642,
      "ope": 4643,
      "pc": 4644,
      "pul": 4645,
      "page": 4646,
      "plead": 4647,
      "rice": 4648,
      "skept": 4649,
      "table": 4650,
      "uset": 4651,
      "vin": 4652,
      "zero": 4653,
      "ina": 4654,
      "theory": 4655,
      "recalls": 4656,
      "stone": 4657,
      "aside": 4658,
      "shak": 4659,
      "trim": 4660,
      "nec": 4661,
      "acle": 4662,
      "outs": 4663,
      "boy": 4664,
      "perman": 4665,
      "afford": 4666,
      "merous": 4667,
      "ansas": 4668,
      "brain": 4669,
      "worker": 4670,
      "elabor": 4671,
      "dram": 4672,
      "lawsuit": 4673,
      "downturn": 4674,
      "subsequ": 4675,
      "mainten": 4676,
      "profitability": 4677,
      "northeast": 4678,
      "reading": 4679,
      "dealing": 4680,
      "emphas": 4681,
      "insurer": 4682,
      "revenues": 4683,
      "heads": 4684,
      "flights": 4685,
      "severe": 4686,
      "youn": 4687,
      "helps": 4688,
      "vietnam": 4689,
      "player": 4690,
      "specialist": 4691,
      "resulted": 4692,
      "harder": 4693,
      "allowing": 4694,
      "viacom": 4695,
      "subsidiaries": 4696,
      "portfolios": 4697,
      "introduce": 4698,
      "thompson": 4699,
      "greenspan": 4700,
      "threatened": 4701,
      "complained": 4702,
      "violations": 4703,
      "delays": 4704,
      "massach": 4705,
      "appropriate": 4706,
      "numerous": 4707,
      "educational": 4708,
      "maximum": 4709,
      "priority": 4710,
      "switch": 4711,
      "flex": 4712,
      "bottom": 4713,
      "applications": 4714,
      "eliminate": 4715,
      "merchant": 4716,
      "passen": 4717,
      "plastic": 4718,
      "honecker": 4719,
      "hanover": 4720,
      "nixon": 4721,
      "opec": 4722,
      "pulp": 4723,
      "usetts": 4724,
      "elaborate": 4725,
      "maintenance": 4726,
      "massachusetts": 4727,
      "aut": 4728,
      "ather": 4729,
      "cab": 4730,
      "gree": 4731,
      "jaco": 4732,
      "kkr": 4733,
      "mption": 4734,
      "pill": 4735,
      "riv": 4736,
      "invit": 4737,
      "unve": 4738,
      "stated": 4739,
      "edged": 4740,
      "arab": 4741,
      "illino": 4742,
      "consent": 4743,
      "protest": 4744,
      "heim": 4745,
      "ables": 4746,
      "impl": 4747,
      "optim": 4748,
      "bob": 4749,
      "boys": 4750,
      "ipts": 4751,
      "billions": 4752,
      "kei": 4753,
      "preced": 4754,
      "disclo": 4755,
      "nationwide": 4756,
      "operators": 4757,
      "bass": 4758,
      "drill": 4759,
      "planes": 4760,
      "tural": 4761,
      "statements": 4762,
      "contra": 4763,
      "turner": 4764,
      "thirds": 4765,
      "formal": 4766,
      "purpose": 4767,
      "consumption": 4768,
      "developers": 4769,
      "totaling": 4770,
      "everybody": 4771,
      "shortly": 4772,
      "indicates": 4773,
      "industrials": 4774,
      "foundation": 4775,
      "bloc": 4776,
      "promised": 4777,
      "represented": 4778,
      "campbell": 4779,
      "cheap": 4780,
      "ggish": 4781,
      "missed": 4782,
      "message": 4783,
      "typical": 4784,
      "targets": 4785,
      "ski": 4786,
      "surprise": 4787,
      "retired": 4788,
      "expanding": 4789,
      "shops": 4790,
      "chains": 4791,
      "catast": 4792,
      "containers": 4793,
      "fighting": 4794,
      "india": 4795,
      "determine": 4796,
      "connection": 4797,
      "fleet": 4798,
      "learned": 4799,
      "freddie": 4800,
      "regarding": 4801,
      "comparison": 4802,
      "sluggish": 4803,
      "promotion": 4804,
      "essentially": 4805,
      "nikkei": 4806,
      "located": 4807,
      "compensation": 4808,
      "organizations": 4809,
      "chamber": 4810,
      "enjoy": 4811,
      "rivals": 4812,
      "illinois": 4813,
      "aq": 4814,
      "avi": 4815,
      "dale": 4816,
      "fly": 4817,
      "hus": 4818,
      "kh": 4819,
      "len": 4820,
      "mul": 4821,
      "ps": 4822,
      "papers": 4823,
      "vs": 4824,
      "winter": 4825,
      "thod": 4826,
      "reinsurance": 4827,
      "stance": 4828,
      "orte": 4829,
      "orti": 4830,
      "engel": 4831,
      "alex": 4832,
      "itsu": 4833,
      "rob": 4834,
      "whate": 4835,
      "method": 4836,
      "nover": 4837,
      "novel": 4838,
      "amed": 4839,
      "compreh": 4840,
      "compaq": 4841,
      "weight": 4842,
      "lif": 4843,
      "peak": 4844,
      "haul": 4845,
      "incin": 4846,
      "wholes": 4847,
      "curb": 4848,
      "minent": 4849,
      "crack": 4850,
      "officers": 4851,
      "driven": 4852,
      "governor": 4853,
      "planners": 4854,
      "turnover": 4855,
      "ltv": 4856,
      "payable": 4857,
      "desire": 4858,
      "stands": 4859,
      "creation": 4860,
      "shot": 4861,
      "warn": 4862,
      "schild": 4863,
      "institution": 4864,
      "halt": 4865,
      "supporters": 4866,
      "delmed": 4867,
      "swed": 4868,
      "demands": 4869,
      "dedu": 4870,
      "hardt": 4871,
      "begins": 4872,
      "packages": 4873,
      "dynam": 4874,
      "successor": 4875,
      "gotten": 4876,
      "authorized": 4877,
      "panic": 4878,
      "aware": 4879,
      "bellsouth": 4880,
      "glass": 4881,
      "bache": 4882,
      "catch": 4883,
      "trends": 4884,
      "bels": 4885,
      "steinhardt": 4886,
      "constitution": 4887,
      "opportunities": 4888,
      "legislative": 4889,
      "tape": 4890,
      "fujitsu": 4891,
      "theater": 4892,
      "exactly": 4893,
      "comfortable": 4894,
      "rothschild": 4895,
      "blame": 4896,
      "reputation": 4897,
      "virginia": 4898,
      "cosmetics": 4899,
      "bailout": 4900,
      "husband": 4901,
      "ortega": 4902,
      "engelken": 4903,
      "whatever": 4904,
      "comprehensive": 4905,
      "wholesale": 4906,
      "aet": 4907,
      "aide": 4908,
      "bare": 4909,
      "dial": 4910,
      "ell": 4911,
      "efell": 4912,
      "fif": 4913,
      "lag": 4914,
      "mci": 4915,
      "mills": 4916,
      "psyl": 4917,
      "text": 4918,
      "ule": 4919,
      "reward": 4920,
      "arms": 4921,
      "icated": 4922,
      "cool": 4923,
      "charter": 4924,
      "advo": 4925,
      "saab": 4926,
      "consen": 4927,
      "prohib": 4928,
      "ays": 4929,
      "memor": 4930,
      "moil": 4931,
      "pool": 4932,
      "lium": 4933,
      "aught": 4934,
      "goals": 4935,
      "corry": 4936,
      "fol": 4937,
      "box": 4938,
      "berlin": 4939,
      "wolf": 4940,
      "somewhat": 4941,
      "pregn": 4942,
      "timore": 4943,
      "intense": 4944,
      "sensit": 4945,
      "turmoil": 4946,
      "attend": 4947,
      "shock": 4948,
      "sels": 4949,
      "advice": 4950,
      "politan": 4951,
      "persu": 4952,
      "accounted": 4953,
      "considerable": 4954,
      "english": 4955,
      "strongly": 4956,
      "resulting": 4957,
      "deny": 4958,
      "baltimore": 4959,
      "retailer": 4960,
      "weaker": 4961,
      "ysis": 4962,
      "schedule": 4963,
      "engineers": 4964,
      "happy": 4965,
      "mesa": 4966,
      "places": 4967,
      "generate": 4968,
      "rockefell": 4969,
      "restaurants": 4970,
      "routine": 4971,
      "sweep": 4972,
      "achieved": 4973,
      "agriculture": 4974,
      "procedures": 4975,
      "exclusive": 4976,
      "bulk": 4977,
      "witness": 4978,
      "besides": 4979,
      "icahn": 4980,
      "daiwa": 4981,
      "metropolitan": 4982,
      "aetna": 4983,
      "fifth": 4984,
      "psyllium": 4985,
      "consensus": 4986,
      "sensitive": 4987,
      "rockefeller": 4988,
      "aven": 4989,
      "clin": 4990,
      "jim": 4991,
      "mist": 4992,
      "send": 4993,
      "zale": 4994,
      "remember": 4995,
      "revolution": 4996,
      "stabil": 4997,
      "edison": 4998,
      "assur": 4999,
      "asian": 5000,
      "cot": 5001,
      "behalf": 5002,
      "dean": 5003,
      "deterior": 5004,
      "love": 5005,
      "confl": 5006,
      "convert": 5007,
      "nold": 5008,
      "weigh": 5009,
      "marine": 5010,
      "plum": 5011,
      "cky": 5012,
      "correct": 5013,
      "bow": 5014,
      "ulty": 5015,
      "pressures": 5016,
      "partial": 5017,
      "airways": 5018,
      "ump": 5019,
      "izing": 5020,
      "drawn": 5021,
      "economics": 5022,
      "latin": 5023,
      "regime": 5024,
      "defensive": 5025,
      "expire": 5026,
      "veland": 5027,
      "cleveland": 5028,
      "looked": 5029,
      "pression": 5030,
      "competing": 5031,
      "delta": 5032,
      "occas": 5033,
      "broken": 5034,
      "hardly": 5035,
      "doubled": 5036,
      "ballo": 5037,
      "broader": 5038,
      "davis": 5039,
      "ranged": 5040,
      "victory": 5041,
      "combination": 5042,
      "destroy": 5043,
      "argument": 5044,
      "variety": 5045,
      "delayed": 5046,
      "deaths": 5047,
      "flows": 5048,
      "donaldson": 5049,
      "conducted": 5050,
      "definition": 5051,
      "learning": 5052,
      "convicted": 5053,
      "spirits": 5054,
      "eggs": 5055,
      "incentives": 5056,
      "initiative": 5057,
      "arrangement": 5058,
      "registered": 5059,
      "gonzale": 5060,
      "gonzalez": 5061,
      "bau": 5062,
      "cup": 5063,
      "dil": 5064,
      "fish": 5065,
      "lau": 5066,
      "lilly": 5067,
      "mate": 5068,
      "mped": 5069,
      "rical": 5070,
      "tand": 5071,
      "wine": 5072,
      "theby": 5073,
      "anx": 5074,
      "anz": 5075,
      "anger": 5076,
      "unfortun": 5077,
      "eria": 5078,
      "recapitalization": 5079,
      "edition": 5080,
      "arthur": 5081,
      "island": 5082,
      "device": 5083,
      "constant": 5084,
      "verty": 5085,
      "sotheby": 5086,
      "trail": 5087,
      "poverty": 5088,
      "compon": 5089,
      "bust": 5090,
      "marked": 5091,
      "permit": 5092,
      "linked": 5093,
      "answers": 5094,
      "bri": 5095,
      "vogel": 5096,
      "pull": 5097,
      "sellers": 5098,
      "broke": 5099,
      "backs": 5100,
      "purposes": 5101,
      "requiring": 5102,
      "departure": 5103,
      "colgate": 5104,
      "engaged": 5105,
      "pont": 5106,
      "compete": 5107,
      "wave": 5108,
      "effectively": 5109,
      "automat": 5110,
      "distributed": 5111,
      "districts": 5112,
      "reaching": 5113,
      "eased": 5114,
      "reasonable": 5115,
      "knock": 5116,
      "engineer": 5117,
      "experiments": 5118,
      "discussing": 5119,
      "hoped": 5120,
      "collection": 5121,
      "strengthen": 5122,
      "responded": 5123,
      "principle": 5124,
      "borrowing": 5125,
      "duty": 5126,
      "acceler": 5127,
      "allianz": 5128,
      "precious": 5129,
      "occurred": 5130,
      "triple": 5131,
      "renewed": 5132,
      "abandoned": 5133,
      "weapons": 5134,
      "casualty": 5135,
      "permanent": 5136,
      "90s": 5137,
      "bates": 5138,
      "bike": 5139,
      "dun": 5140,
      "kick": 5141,
      "nis": 5142,
      "wcr": 5143,
      "zard": 5144,
      "insider": 5145,
      "ats": 5146,
      "arr": 5147,
      "toyo": 5148,
      "inghouse": 5149,
      "rod": 5150,
      "icut": 5151,
      "coors": 5152,
      "coke": 5153,
      "cola": 5154,
      "coca": 5155,
      "enty": 5156,
      "ouse": 5157,
      "champ": 5158,
      "lease": 5159,
      "forward": 5160,
      "beha": 5161,
      "becomes": 5162,
      "comed": 5163,
      "detro": 5164,
      "lots": 5165,
      "concre": 5166,
      "convers": 5167,
      "terror": 5168,
      "poison": 5169,
      "compares": 5170,
      "akzo": 5171,
      "dom": 5172,
      "marshall": 5173,
      "plenty": 5174,
      "newport": 5175,
      "asters": 5176,
      "perfect": 5177,
      "noting": 5178,
      "mergers": 5179,
      "prev": 5180,
      "prepar": 5181,
      "causes": 5182,
      "spur": 5183,
      "spark": 5184,
      "ideas": 5185,
      "izes": 5186,
      "senator": 5187,
      "cycl": 5188,
      "creative": 5189,
      "shell": 5190,
      "westinghouse": 5191,
      "loyalty": 5192,
      "developer": 5193,
      "risen": 5194,
      "divisions": 5195,
      "explo": 5196,
      "filings": 5197,
      "credibility": 5198,
      "wright": 5199,
      "colm": 5200,
      "handful": 5201,
      "testing": 5202,
      "packaging": 5203,
      "writer": 5204,
      "science": 5205,
      "nevertheless": 5206,
      "1990s": 5207,
      "telling": 5208,
      "pilson": 5209,
      "teams": 5210,
      "crucial": 5211,
      "malcolm": 5212,
      "succeeded": 5213,
      "premiums": 5214,
      "rape": 5215,
      "recommended": 5216,
      "circulation": 5217,
      "watching": 5218,
      "duties": 5219,
      "whites": 5220,
      "delivered": 5221,
      "pollution": 5222,
      "suspension": 5223,
      "convinc": 5224,
      "distance": 5225,
      "plastics": 5226,
      "achieve": 5227,
      "henry": 5228,
      "mainframe": 5229,
      "connecticut": 5230,
      "syndicate": 5231,
      "tentatively": 5232,
      "reluctant": 5233,
      "sustained": 5234,
      "lufkin": 5235,
      "psycho": 5236,
      "wcrs": 5237,
      "toyota": 5238,
      "detroit": 5239,
      "concrete": 5240,
      "amental": 5241,
      "bster": 5242,
      "fans": 5243,
      "fue": 5244,
      "hl": 5245,
      "kent": 5246,
      "mad": 5247,
      "pp": 5248,
      "sion": 5249,
      "wart": 5250,
      "xim": 5251,
      "unexpected": 5252,
      "erts": 5253,
      "remic": 5254,
      "redeem": 5255,
      "enh": 5256,
      "enix": 5257,
      "illustr": 5258,
      "ado": 5259,
      "ades": 5260,
      "igan": 5261,
      "iger": 5262,
      "exempt": 5263,
      "powers": 5264,
      "nomur": 5265,
      "amr": 5266,
      "webster": 5267,
      "lie": 5268,
      "imate": 5269,
      "hast": 5270,
      "hahn": 5271,
      "opher": 5272,
      "oppose": 5273,
      "hook": 5274,
      "gov": 5275,
      "marketplace": 5276,
      "ichi": 5277,
      "mons": 5278,
      "permission": 5279,
      "fined": 5280,
      "cribe": 5281,
      "prec": 5282,
      "decades": 5283,
      "ously": 5284,
      "maid": 5285,
      "surround": 5286,
      "fundamental": 5287,
      "driving": 5288,
      "downward": 5289,
      "desk": 5290,
      "cycle": 5291,
      "productivity": 5292,
      "sheet": 5293,
      "credits": 5294,
      "charging": 5295,
      "commonwealth": 5296,
      "simmons": 5297,
      "timing": 5298,
      "homeless": 5299,
      "judicial": 5300,
      "bargain": 5301,
      "waerts": 5302,
      "projections": 5303,
      "approxim": 5304,
      "indicating": 5305,
      "imported": 5306,
      "subsidies": 5307,
      "athlet": 5308,
      "cheaper": 5309,
      "abortions": 5310,
      "mcdonald": 5311,
      "experienced": 5312,
      "germans": 5313,
      "feeling": 5314,
      "thomson": 5315,
      "complaints": 5316,
      "difficulties": 5317,
      "attempting": 5318,
      "statut": 5319,
      "conservatives": 5320,
      "roller": 5321,
      "underwriter": 5322,
      "christopher": 5323,
      "logic": 5324,
      "pitch": 5325,
      "murder": 5326,
      "killed": 5327,
      "encouraged": 5328,
      "criticized": 5329,
      "teachers": 5330,
      "candidate": 5331,
      "assuming": 5332,
      "assumption": 5333,
      "troop": 5334,
      "phoenix": 5335,
      "license": 5336,
      "oblig": 5337,
      "michigan": 5338,
      "eager": 5339,
      "crowd": 5340,
      "ilae": 5341,
      "inquiry": 5342,
      "federation": 5343,
      "stretch": 5344,
      "biotechnology": 5345,
      "dramatic": 5346,
      "younger": 5347,
      "precedent": 5348,
      "nomura": 5349,
      "waertsilae": 5350,
      "approximately": 5351,
      "fat": 5352,
      "flying": 5353,
      "gil": 5354,
      "gamble": 5355,
      "jun": 5356,
      "mips": 5357,
      "nival": 5358,
      "owed": 5359,
      "pink": 5360,
      "tic": 5361,
      "uli": 5362,
      "ybe": 5363,
      "inally": 5364,
      "ani": 5365,
      "unions": 5366,
      "erton": 5367,
      "recover": 5368,
      "remarks": 5369,
      "replaced": 5370,
      "ateral": 5371,
      "aland": 5372,
      "allies": 5373,
      "ingers": 5374,
      "iced": 5375,
      "icting": 5376,
      "seag": 5377,
      "vegas": 5378,
      "ador": 5379,
      "samer": 5380,
      "sacr": 5381,
      "deleg": 5382,
      "convict": 5383,
      "soybe": 5384,
      "abilities": 5385,
      "appreciation": 5386,
      "imposed": 5387,
      "marcos": 5388,
      "opponents": 5389,
      "interbank": 5390,
      "overnight": 5391,
      "blamed": 5392,
      "maynard": 5393,
      "steep": 5394,
      "capped": 5395,
      "carnival": 5396,
      "guild": 5397,
      "backing": 5398,
      "sons": 5399,
      "dealings": 5400,
      "letion": 5401,
      "viewed": 5402,
      "developments": 5403,
      "dropping": 5404,
      "totally": 5405,
      "telegraph": 5406,
      "consideration": 5407,
      "judg": 5408,
      "automobile": 5409,
      "milk": 5410,
      "falls": 5411,
      "indicators": 5412,
      "regulation": 5413,
      "born": 5414,
      "nedy": 5415,
      "meaning": 5416,
      "divided": 5417,
      "freeway": 5418,
      "sciences": 5419,
      "organized": 5420,
      "stateswest": 5421,
      "mcdon": 5422,
      "kids": 5423,
      "succeeding": 5424,
      "giuli": 5425,
      "collateral": 5426,
      "treaty": 5427,
      "nasa": 5428,
      "detailed": 5429,
      "audit": 5430,
      "relative": 5431,
      "requested": 5432,
      "cards": 5433,
      "kennedy": 5434,
      "zealand": 5435,
      "legislators": 5436,
      "trem": 5437,
      "korean": 5438,
      "bikes": 5439,
      "originally": 5440,
      "starts": 5441,
      "dutch": 5442,
      "checks": 5443,
      "slump": 5444,
      "aggressively": 5445,
      "referring": 5446,
      "refinery": 5447,
      "acknowledged": 5448,
      "selected": 5449,
      "liberal": 5450,
      "calculated": 5451,
      "promote": 5452,
      "merksamer": 5453,
      "plaint": 5454,
      "jacob": 5455,
      "baum": 5456,
      "pinkerton": 5457,
      "giuliani": 5458,
      "aver": 5459,
      "aight": 5460,
      "cue": 5461,
      "dor": 5462,
      "eld": 5463,
      "fired": 5464,
      "hond": 5465,
      "jail": 5466,
      "knight": 5467,
      "nl": 5468,
      "rack": 5469,
      "rations": 5470,
      "rass": 5471,
      "rural": 5472,
      "vary": 5473,
      "vine": 5474,
      "za": 5475,
      "erve": 5476,
      "remove": 5477,
      "redem": 5478,
      "restore": 5479,
      "alties": 5480,
      "array": 5481,
      "asbe": 5482,
      "asser": 5483,
      "leas": 5484,
      "lewis": 5485,
      "forcing": 5486,
      "uted": 5487,
      "uters": 5488,
      "sued": 5489,
      "tered": 5490,
      "resort": 5491,
      "rescue": 5492,
      "straight": 5493,
      "anybody": 5494,
      "plat": 5495,
      "stos": 5496,
      "boren": 5497,
      "antile": 5498,
      "embar": 5499,
      "percept": 5500,
      "permitted": 5501,
      "grants": 5502,
      "disease": 5503,
      "businessmen": 5504,
      "presidential": 5505,
      "ileo": 5506,
      "proved": 5507,
      "polish": 5508,
      "drag": 5509,
      "carl": 5510,
      "sian": 5511,
      "analysis": 5512,
      "contras": 5513,
      "programming": 5514,
      "raises": 5515,
      "indict": 5516,
      "publications": 5517,
      "leads": 5518,
      "shore": 5519,
      "readers": 5520,
      "gyrations": 5521,
      "expend": 5522,
      "farmer": 5523,
      "cleared": 5524,
      "controlling": 5525,
      "showtime": 5526,
      "mature": 5527,
      "departments": 5528,
      "receipts": 5529,
      "thinking": 5530,
      "solicit": 5531,
      "barney": 5532,
      "handled": 5533,
      "famous": 5534,
      "swap": 5535,
      "presented": 5536,
      "indication": 5537,
      "burden": 5538,
      "rush": 5539,
      "founded": 5540,
      "properly": 5541,
      "activists": 5542,
      "promises": 5543,
      "representative": 5544,
      "winning": 5545,
      "penalty": 5546,
      "penalties": 5547,
      "findings": 5548,
      "performed": 5549,
      "emerging": 5550,
      "visitors": 5551,
      "maintained": 5552,
      "participation": 5553,
      "catal": 5554,
      "responding": 5555,
      "features": 5556,
      "entirely": 5557,
      "minute": 5558,
      "welcome": 5559,
      "disappointed": 5560,
      "allegedly": 5561,
      "african": 5562,
      "deadline": 5563,
      "joining": 5564,
      "controversy": 5565,
      "sweet": 5566,
      "speculators": 5567,
      "maryland": 5568,
      "mercantile": 5569,
      "medicine": 5570,
      "bartlett": 5571,
      "category": 5572,
      "technique": 5573,
      "attitude": 5574,
      "galileo": 5575,
      "barely": 5576,
      "memories": 5577,
      "plummet": 5578,
      "balloon": 5579,
      "asbestos": 5580,
      "embarrass": 5581,
      "indictment": 5582,
      "50": 5583,
      "bir": 5584,
      "cincin": 5585,
      "eat": 5586,
      "fda": 5587,
      "fbi": 5588,
      "gand": 5589,
      "iment": 5590,
      "jen": 5591,
      "knew": 5592,
      "ration": 5593,
      "slower": 5594,
      "tone": 5595,
      "trel": 5596,
      "zone": 5597,
      "ongest": 5598,
      "recovered": 5599,
      "stakes": 5600,
      "alask": 5601,
      "roger": 5602,
      "ander": 5603,
      "cohen": 5604,
      "seid": 5605,
      "leverage": 5606,
      "lebor": 5607,
      "dete": 5608,
      "depend": 5609,
      "depending": 5610,
      "conner": 5611,
      "igible": 5612,
      "soar": 5613,
      "amond": 5614,
      "neapolis": 5615,
      "acres": 5616,
      "ima": 5617,
      "imper": 5618,
      "outcome": 5619,
      "outlets": 5620,
      "buck": 5621,
      "busy": 5622,
      "tees": 5623,
      "ighter": 5624,
      "fox": 5625,
      "link": 5626,
      "lined": 5627,
      "merge": 5628,
      "minneapolis": 5629,
      "odds": 5630,
      "diamond": 5631,
      "contend": 5632,
      "umul": 5633,
      "vior": 5634,
      "cape": 5635,
      "paramount": 5636,
      "courter": 5637,
      "takeovers": 5638,
      "jewel": 5639,
      "financially": 5640,
      "warren": 5641,
      "explos": 5642,
      "realized": 5643,
      "rica": 5644,
      "charities": 5645,
      "committees": 5646,
      "foreigners": 5647,
      "howard": 5648,
      "reductions": 5649,
      "petro": 5650,
      "streets": 5651,
      "iowa": 5652,
      "nati": 5653,
      "texaco": 5654,
      "writing": 5655,
      "sentiment": 5656,
      "choose": 5657,
      "ruption": 5658,
      "dream": 5659,
      "tells": 5660,
      "midwest": 5661,
      "rallied": 5662,
      "potentially": 5663,
      "plea": 5664,
      "revive": 5665,
      "happens": 5666,
      "discussed": 5667,
      "classes": 5668,
      "hoping": 5669,
      "breaking": 5670,
      "lists": 5671,
      "copies": 5672,
      "pounds": 5673,
      "gnp": 5674,
      "participate": 5675,
      "seasonally": 5676,
      "resolved": 5677,
      "definitive": 5678,
      "attracted": 5679,
      "polls": 5680,
      "leaves": 5681,
      "nonetheless": 5682,
      "rette": 5683,
      "performing": 5684,
      "ticket": 5685,
      "false": 5686,
      "shape": 5687,
      "screen": 5688,
      "cathay": 5689,
      "emphasis": 5690,
      "optimistic": 5691,
      "disclosure": 5692,
      "drilling": 5693,
      "avenue": 5694,
      "cotton": 5695,
      "behavior": 5696,
      "cincinnati": 5697,
      "gandhi": 5698,
      "jenrette": 5699,
      "trellebor": 5700,
      "seidman": 5701,
      "imperial": 5702,
      "trelleborg": 5703,
      "ai": 5704,
      "cattle": 5705,
      "ders": 5706,
      "dau": 5707,
      "fiat": 5708,
      "iation": 5709,
      "ls": 5710,
      "lbo": 5711,
      "phas": 5712,
      "ronald": 5713,
      "tan": 5714,
      "ua": 5715,
      "theme": 5716,
      "anth": 5717,
      "unis": 5718,
      "unfair": 5719,
      "reve": 5720,
      "recru": 5721,
      "stability": 5722,
      "oring": 5723,
      "ited": 5724,
      "icious": 5725,
      "collar": 5726,
      "lehe": 5727,
      "admitted": 5728,
      "beaut": 5729,
      "compound": 5730,
      "arel": 5731,
      "urging": 5732,
      "logg": 5733,
      "ambling": 5734,
      "atest": 5735,
      "weather": 5736,
      "lire": 5737,
      "dub": 5738,
      "ause": 5739,
      "somebody": 5740,
      "minim": 5741,
      "overhaul": 5742,
      "airport": 5743,
      "ached": 5744,
      "frustr": 5745,
      "pective": 5746,
      "vio": 5747,
      "downtown": 5748,
      "interesting": 5749,
      "financier": 5750,
      "capito": 5751,
      "economies": 5752,
      "pays": 5753,
      "submitted": 5754,
      "backlog": 5755,
      "raw": 5756,
      "attached": 5757,
      "factories": 5758,
      "apparel": 5759,
      "debts": 5760,
      "boards": 5761,
      "bidders": 5762,
      "contractor": 5763,
      "tennes": 5764,
      "sanctions": 5765,
      "perspective": 5766,
      "plays": 5767,
      "supporting": 5768,
      "ships": 5769,
      "greatly": 5770,
      "failing": 5771,
      "watched": 5772,
      "blooming": 5773,
      "greatest": 5774,
      "successfully": 5775,
      "negotiated": 5776,
      "scores": 5777,
      "missing": 5778,
      "difficulty": 5779,
      "malays": 5780,
      "argues": 5781,
      "favorite": 5782,
      "iii": 5783,
      "frey": 5784,
      "travelers": 5785,
      "traditionally": 5786,
      "anticipation": 5787,
      "completely": 5788,
      "grounds": 5789,
      "learn": 5790,
      "eliminated": 5791,
      "residential": 5792,
      "exceeded": 5793,
      "printing": 5794,
      "obtained": 5795,
      "assumed": 5796,
      "hospitals": 5797,
      "smooth": 5798,
      "recognition": 5799,
      "characters": 5800,
      "eagle": 5801,
      "concentrate": 5802,
      "mainframes": 5803,
      "jeffrey": 5804,
      "obviously": 5805,
      "tools": 5806,
      "kellogg": 5807,
      "discipline": 5808,
      "bethlehe": 5809,
      "canceled": 5810,
      "aspects": 5811,
      "philippines": 5812,
      "quebecor": 5813,
      "academic": 5814,
      "durable": 5815,
      "veteran": 5816,
      "pleaded": 5817,
      "daugh": 5818,
      "unisys": 5819,
      "capitol": 5820,
      "tennessee": 5821,
      "bloomingdale": 5822,
      "malaysia": 5823,
      "bethlehem": 5824,
      "amex": 5825,
      "bab": 5826,
      "dal": 5827,
      "hire": 5828,
      "lane": 5829,
      "mir": 5830,
      "mack": 5831,
      "master": 5832,
      "oly": 5833,
      "pts": 5834,
      "sate": 5835,
      "tay": 5836,
      "tissue": 5837,
      "tiger": 5838,
      "vard": 5839,
      "wages": 5840,
      "wpp": 5841,
      "yama": 5842,
      "zman": 5843,
      "anian": 5844,
      "reset": 5845,
      "rebels": 5846,
      "enthus": 5847,
      "rown": 5848,
      "cooper": 5849,
      "covers": 5850,
      "leban": 5851,
      "ada": 5852,
      "degree": 5853,
      "proportion": 5854,
      "nomin": 5855,
      "amanian": 5856,
      "nest": 5857,
      "absor": 5858,
      "lift": 5859,
      "accur": 5860,
      "llite": 5861,
      "doctors": 5862,
      "incur": 5863,
      "boss": 5864,
      "interpret": 5865,
      "odd": 5866,
      "tire": 5867,
      "bron": 5868,
      "dia": 5869,
      "gray": 5870,
      "produces": 5871,
      "discour": 5872,
      "disasters": 5873,
      "decreas": 5874,
      "funded": 5875,
      "fundament": 5876,
      "extensive": 5877,
      "italian": 5878,
      "taxable": 5879,
      "struck": 5880,
      "temple": 5881,
      "advised": 5882,
      "employed": 5883,
      "electrical": 5884,
      "aides": 5885,
      "associate": 5886,
      "asks": 5887,
      "gather": 5888,
      "solution": 5889,
      "walls": 5890,
      "climate": 5891,
      "projected": 5892,
      "milton": 5893,
      "importance": 5894,
      "symp": 5895,
      "allows": 5896,
      "dennis": 5897,
      "slowed": 5898,
      "measured": 5899,
      "bitter": 5900,
      "laborator": 5901,
      "negotiable": 5902,
      "panamanian": 5903,
      "posts": 5904,
      "plement": 5905,
      "harvard": 5906,
      "adjustments": 5907,
      "improvements": 5908,
      "attempts": 5909,
      "experiment": 5910,
      "predicting": 5911,
      "franklin": 5912,
      "electricity": 5913,
      "studying": 5914,
      "complaint": 5915,
      "touch": 5916,
      "300": 5917,
      "socialist": 5918,
      "focusing": 5919,
      "seriously": 5920,
      "accident": 5921,
      "partnerships": 5922,
      "ringers": 5923,
      "donations": 5924,
      "resolve": 5925,
      "borrowed": 5926,
      "segments": 5927,
      "eyes": 5928,
      "pieces": 5929,
      "pharmaceuticals": 5930,
      "replacement": 5931,
      "surprisingly": 5932,
      "suddenly": 5933,
      "monitoring": 5934,
      "quotations": 5935,
      "satisf": 5936,
      "railroad": 5937,
      "subscribers": 5938,
      "squeeze": 5939,
      "consequences": 5940,
      "multi": 5941,
      "sweeping": 5942,
      "terrorism": 5943,
      "hastings": 5944,
      "plaintiffs": 5945,
      "baby": 5946,
      "olymp": 5947,
      "satellite": 5948,
      "taylor": 5949,
      "enthusi": 5950,
      "lebanon": 5951,
      "laboratories": 5952,
      "13": 5953,
      "ah": 5954,
      "blow": 5955,
      "border": 5956,
      "cates": 5957,
      "cused": 5958,
      "fty": 5959,
      "fled": 5960,
      "gau": 5961,
      "gged": 5962,
      "hits": 5963,
      "iver": 5964,
      "kle": 5965,
      "lent": 5966,
      "lone": 5967,
      "pun": 5968,
      "rain": 5969,
      "udi": 5970,
      "vast": 5971,
      "injur": 5972,
      "erto": 5973,
      "rew": 5974,
      "atmo": 5975,
      "ionally": 5976,
      "assin": 5977,
      "coordin": 5978,
      "sectors": 5979,
      "idav": 5980,
      "leap": 5981,
      "admits": 5982,
      "saudi": 5983,
      "delaw": 5984,
      "defect": 5985,
      "depressed": 5986,
      "lomat": 5987,
      "iration": 5988,
      "vermont": 5989,
      "hefty": 5990,
      "abuse": 5991,
      "imony": 5992,
      "strain": 5993,
      "strict": 5994,
      "mart": 5995,
      "marina": 5996,
      "incor": 5997,
      "ifically": 5998,
      "focused": 5999,
      "fee": 6000,
      "stockholders": 6001,
      "finish": 6002,
      "finds": 6003,
      "ouri": 6004,
      "anced": 6005,
      "mines": 6006,
      "bankamerica": 6007,
      "igned": 6008,
      "grace": 6009,
      "spon": 6010,
      "spill": 6011,
      "spiel": 6012,
      "puerto": 6013,
      "plane": 6014,
      "turkey": 6015,
      "officially": 6016,
      "turnaround": 6017,
      "assassin": 6018,
      "evans": 6019,
      "evalu": 6020,
      "longtime": 6021,
      "wars": 6022,
      "defaul": 6023,
      "legally": 6024,
      "expires": 6025,
      "expiration": 6026,
      "manages": 6027,
      "ledge": 6028,
      "receiving": 6029,
      "considerably": 6030,
      "structures": 6031,
      "inspect": 6032,
      "annualized": 6033,
      "affidav": 6034,
      "testimony": 6035,
      "specifically": 6036,
      "privat": 6037,
      "knowledge": 6038,
      "hardware": 6039,
      "failures": 6040,
      "obst": 6041,
      "rubber": 6042,
      "risky": 6043,
      "sitting": 6044,
      "chosen": 6045,
      "ralph": 6046,
      "adjustable": 6047,
      "bells": 6048,
      "missouri": 6049,
      "classic": 6050,
      "boosting": 6051,
      "converted": 6052,
      "violation": 6053,
      "acceptance": 6054,
      "bridges": 6055,
      "crimes": 6056,
      "stuff": 6057,
      "necessarily": 6058,
      "prosecutor": 6059,
      "surveyed": 6060,
      "approached": 6061,
      "supplier": 6062,
      "legislature": 6063,
      "explains": 6064,
      "modestly": 6065,
      "whitbread": 6066,
      "instrument": 6067,
      "professionals": 6068,
      "inventory": 6069,
      "scene": 6070,
      "respectively": 6071,
      "consistently": 6072,
      "tiny": 6073,
      "diversified": 6074,
      "struggling": 6075,
      "colorado": 6076,
      "witter": 6077,
      "involvement": 6078,
      "assessment": 6079,
      "diplomat": 6080,
      "photograph": 6081,
      "random": 6082,
      "dangerous": 6083,
      "depends": 6084,
      "cigarettes": 6085,
      "scheme": 6086,
      "barriers": 6087,
      "unveiled": 6088,
      "dynamics": 6089,
      "advocates": 6090,
      "champion": 6091,
      "surrounding": 6092,
      "plummeted": 6093,
      "klein": 6094,
      "injuries": 6095,
      "atmosp": 6096,
      "delaware": 6097,
      "spielvogel": 6098,
      "\\*": 6099,
      "bors": 6100,
      "bally": 6101,
      "ez": 6102,
      "fab": 6103,
      "hiring": 6104,
      "jet": 6105,
      "kha": 6106,
      "kod": 6107,
      "lion": 6108,
      "leng": 6109,
      "lung": 6110,
      "mbol": 6111,
      "ore": 6112,
      "ode": 6113,
      "pin": 6114,
      "penter": 6115,
      "path": 6116,
      "sle": 6117,
      "uge": 6118,
      "ws": 6119,
      "inist": 6120,
      "inju": 6121,
      "uno": 6122,
      "repurchase": 6123,
      "allied": 6124,
      "toll": 6125,
      "roph": 6126,
      "coa": 6127,
      "cocoa": 6128,
      "seou": 6129,
      "lex": 6130,
      "illu": 6131,
      "conven": 6132,
      "conglo": 6133,
      "conspir": 6134,
      "agno": 6135,
      "sher": 6136,
      "tery": 6137,
      "moon": 6138,
      "compli": 6139,
      "neth": 6140,
      "imf": 6141,
      "doctor": 6142,
      "hazard": 6143,
      "artist": 6144,
      "iegel": 6145,
      "boes": 6146,
      "anton": 6147,
      "ghan": 6148,
      "luster": 6149,
      "afghan": 6150,
      "ussels": 6151,
      "banned": 6152,
      "ipt": 6153,
      "finn": 6154,
      "merate": 6155,
      "merged": 6156,
      "brussels": 6157,
      "dismissed": 6158,
      "declar": 6159,
      "spiegel": 6160,
      "presidents": 6161,
      "bases": 6162,
      "worries": 6163,
      "carpet": 6164,
      "carpenter": 6165,
      "analy": 6166,
      "evening": 6167,
      "attended": 6168,
      "loyal": 6169,
      "legit": 6170,
      "contractors": 6171,
      "fargo": 6172,
      "reality": 6173,
      "reportedly": 6174,
      "motion": 6175,
      "refuge": 6176,
      "insists": 6177,
      "healthvest": 6178,
      "mikha": 6179,
      "specialized": 6180,
      "clearing": 6181,
      "volunt": 6182,
      "versions": 6183,
      "symbol": 6184,
      "commissioner": 6185,
      "keeps": 6186,
      "slowly": 6187,
      "ftc": 6188,
      "tvs": 6189,
      "seasonal": 6190,
      "laboratory": 6191,
      "easing": 6192,
      "budgets": 6193,
      "190": 6194,
      "restructure": 6195,
      "pencil": 6196,
      "pleased": 6197,
      "adjustment": 6198,
      "complicated": 6199,
      "flood": 6200,
      "appointment": 6201,
      "williams": 6202,
      "introduction": 6203,
      "operational": 6204,
      "independence": 6205,
      "nearby": 6206,
      "discounting": 6207,
      "lackluster": 6208,
      "contained": 6209,
      "prospective": 6210,
      "respondents": 6211,
      "kenneth": 6212,
      "treated": 6213,
      "devast": 6214,
      "protected": 6215,
      "investigating": 6216,
      "retained": 6217,
      "insisted": 6218,
      "smoking": 6219,
      "dominated": 6220,
      "florio": 6221,
      "affiliates": 6222,
      "samuel": 6223,
      "matching": 6224,
      "incentive": 6225,
      "transferred": 6226,
      "struggle": 6227,
      "concedes": 6228,
      "withdrawal": 6229,
      "chevron": 6230,
      "eteering": 6231,
      "sandinist": 6232,
      "solutions": 6233,
      "mentioned": 6234,
      "subsequent": 6235,
      "flexibility": 6236,
      "implications": 6237,
      "catastroph": 6238,
      "persuade": 6239,
      "diluted": 6240,
      "unfortunately": 6241,
      "prevail": 6242,
      "fueled": 6243,
      "hooker": 6244,
      "precise": 6245,
      "conviction": 6246,
      "racketeering": 6247,
      "punish": 6248,
      "kodak": 6249,
      "length": 6250,
      "injured": 6251,
      "seoul": 6252,
      "conglomerate": 6253,
      "conspiracy": 6254,
      "compliance": 6255,
      "mikhail": 6256,
      "aig": 6257,
      "aiss": 6258,
      "cf": 6259,
      "fide": 6260,
      "kat": 6261,
      "kem": 6262,
      "lity": 6263,
      "mult": 6264,
      "oll": 6265,
      "sending": 6266,
      "sized": 6267,
      "tact": 6268,
      "uable": 6269,
      "wind": 6270,
      "innov": 6271,
      "injun": 6272,
      "thetic": 6273,
      "angr": 6274,
      "rees": 6275,
      "remark": 6276,
      "refinancing": 6277,
      "ento": 6278,
      "arre": 6279,
      "armed": 6280,
      "tox": 6281,
      "rolled": 6282,
      "robust": 6283,
      "sem": 6284,
      "chequ": 6285,
      "lection": 6286,
      "urer": 6287,
      "loose": 6288,
      "conversion": 6289,
      "agrees": 6290,
      "exchequ": 6291,
      "tray": 6292,
      "trump": 6293,
      "amento": 6294,
      "compiled": 6295,
      "completion": 6296,
      "liers": 6297,
      "lived": 6298,
      "pemex": 6299,
      "tested": 6300,
      "dod": 6301,
      "duck": 6302,
      "duff": 6303,
      "dumped": 6304,
      "anyway": 6305,
      "upward": 6306,
      "incident": 6307,
      "portray": 6308,
      "foster": 6309,
      "feb": 6310,
      "embr": 6311,
      "mored": 6312,
      "istan": 6313,
      "isters": 6314,
      "berke": 6315,
      "salary": 6316,
      "notion": 6317,
      "mercur": 6318,
      "ministers": 6319,
      "cry": 6320,
      "craig": 6321,
      "rent": 6322,
      "renaiss": 6323,
      "disco": 6324,
      "discontinued": 6325,
      "count": 6326,
      "counts": 6327,
      "intention": 6328,
      "afterma": 6329,
      "eligible": 6330,
      "expecting": 6331,
      "therefore": 6332,
      "basically": 6333,
      "planner": 6334,
      "okla": 6335,
      "extension": 6336,
      "financed": 6337,
      "steve": 6338,
      "capt": 6339,
      "suburban": 6340,
      "nett": 6341,
      "desper": 6342,
      "speaker": 6343,
      "valuable": 6344,
      "formally": 6345,
      "equities": 6346,
      "goodson": 6347,
      "pointed": 6348,
      "charity": 6349,
      "viewers": 6350,
      "treasurer": 6351,
      "newsletter": 6352,
      "competitor": 6353,
      "shipped": 6354,
      "shortage": 6355,
      "amoco": 6356,
      "indications": 6357,
      "rumored": 6358,
      "lotus": 6359,
      "attribut": 6360,
      "weakening": 6361,
      "publishers": 6362,
      "appearance": 6363,
      "stepped": 6364,
      "happening": 6365,
      "emerge": 6366,
      "roads": 6367,
      "restricted": 6368,
      "holas": 6369,
      "skills": 6370,
      "generated": 6371,
      "kinds": 6372,
      "affecting": 6373,
      "advisory": 6374,
      "quote": 6375,
      "bearish": 6376,
      "picked": 6377,
      "rolling": 6378,
      "nicholas": 6379,
      "secure": 6380,
      "suppliers": 6381,
      "supervis": 6382,
      "killing": 6383,
      "reliance": 6384,
      "bias": 6385,
      "eliminating": 6386,
      "ounces": 6387,
      "dozens": 6388,
      "cleanup": 6389,
      "attacks": 6390,
      "raymond": 6391,
      "promotions": 6392,
      "relationships": 6393,
      "licens": 6394,
      "licenses": 6395,
      "hudson": 6396,
      "baskets": 6397,
      "fuji": 6398,
      "ultimate": 6399,
      "spanish": 6400,
      "installed": 6401,
      "coalition": 6402,
      "apartment": 6403,
      "survive": 6404,
      "palo": 6405,
      "jurors": 6406,
      "spinoff": 6407,
      "russian": 6408,
      "racial": 6409,
      "aviation": 6410,
      "swedish": 6411,
      "folk": 6412,
      "tandy": 6413,
      "components": 6414,
      "convinced": 6415,
      "troops": 6416,
      "ingersoll": 6417,
      "sacramento": 6418,
      "jacobson": 6419,
      "honda": 6420,
      "redemption": 6421,
      "cfcs": 6422,
      "fidelity": 6423,
      "katz": 6424,
      "kemper": 6425,
      "injunction": 6426,
      "angry": 6427,
      "exchequer": 6428,
      "berkeley": 6429,
      "mercury": 6430,
      "renaissance": 6431,
      "aftermath": 6432,
      "averaged": 6433,
      "bing": 6434,
      "cree": 6435,
      "cumul": 6436,
      "dar": 6437,
      "eer": 6438,
      "fers": 6439,
      "fier": 6440,
      "fusion": 6441,
      "gart": 6442,
      "gaf": 6443,
      "hun": 6444,
      "hon": 6445,
      "iro": 6446,
      "iency": 6447,
      "jay": 6448,
      "lli": 6449,
      "lake": 6450,
      "md": 6451,
      "mune": 6452,
      "nig": 6453,
      "nab": 6454,
      "oy": 6455,
      "omin": 6456,
      "ola": 6457,
      "pi": 6458,
      "pion": 6459,
      "rig": 6460,
      "rance": 6461,
      "sport": 6462,
      "swell": 6463,
      "vul": 6464,
      "wich": 6465,
      "wboys": 6466,
      "zy": 6467,
      "inch": 6468,
      "instruct": 6469,
      "informed": 6470,
      "unusually": 6471,
      "unification": 6472,
      "erly": 6473,
      "rely": 6474,
      "refund": 6475,
      "revers": 6476,
      "rejection": 6477,
      "orts": 6478,
      "orous": 6479,
      "enable": 6480,
      "itures": 6481,
      "rome": 6482,
      "rowe": 6483,
      "rosen": 6484,
      "cowboys": 6485,
      "seme": 6486,
      "seum": 6487,
      "entry": 6488,
      "chunk": 6489,
      "lebr": 6490,
      "admit": 6491,
      "belong": 6492,
      "utah": 6493,
      "defer": 6494,
      "lowest": 6495,
      "consin": 6496,
      "concess": 6497,
      "contest": 6498,
      "sulli": 6499,
      "celebr": 6500,
      "compare": 6501,
      "resorts": 6502,
      "nether": 6503,
      "absolut": 6504,
      "liabilities": 6505,
      "immune": 6506,
      "offs": 6507,
      "golf": 6508,
      "stolen": 6509,
      "articles": 6510,
      "marketers": 6511,
      "ula": 6512,
      "ultural": 6513,
      "lucr": 6514,
      "ippi": 6515,
      "somewhere": 6516,
      "mineral": 6517,
      "bris": 6518,
      "brick": 6519,
      "disney": 6520,
      "discret": 6521,
      "discrim": 6522,
      "genev": 6523,
      "effic": 6524,
      "itely": 6525,
      "owning": 6526,
      "steal": 6527,
      "setback": 6528,
      "serving": 6529,
      "seller": 6530,
      "execution": 6531,
      "lectual": 6532,
      "guest": 6533,
      "callable": 6534,
      "issippi": 6535,
      "museum": 6536,
      "facts": 6537,
      "publication": 6538,
      "warsaw": 6539,
      "formula": 6540,
      "cuse": 6541,
      "empire": 6542,
      "nerable": 6543,
      "maturing": 6544,
      "congressman": 6545,
      "communities": 6546,
      "announcing": 6547,
      "sansui": 6548,
      "treasurys": 6549,
      "healthcare": 6550,
      "swift": 6551,
      "claiming": 6552,
      "wheat": 6553,
      "optical": 6554,
      "carefully": 6555,
      "rub": 6556,
      "denomin": 6557,
      "packaged": 6558,
      "tva": 6559,
      "wedtech": 6560,
      "harm": 6561,
      "truth": 6562,
      "similarly": 6563,
      "mississippi": 6564,
      "medium": 6565,
      "staffers": 6566,
      "restrain": 6567,
      "placing": 6568,
      "arguments": 6569,
      "violent": 6570,
      "motorola": 6571,
      "strategist": 6572,
      "environmentalists": 6573,
      "constitu": 6574,
      "distributor": 6575,
      "globe": 6576,
      "requests": 6577,
      "bonuses": 6578,
      "encouraging": 6579,
      "consorti": 6580,
      "bott": 6581,
      "explained": 6582,
      "prepare": 6583,
      "regarded": 6584,
      "jackson": 6585,
      "investigators": 6586,
      "connaught": 6587,
      "teacher": 6588,
      "dominant": 6589,
      "tourist": 6590,
      "tourists": 6591,
      "recognized": 6592,
      "louisville": 6593,
      "sounds": 6594,
      "wisconsin": 6595,
      "responsibilities": 6596,
      "referred": 6597,
      "edwards": 6598,
      "intellectual": 6599,
      "incest": 6600,
      "agricultural": 6601,
      "horse": 6602,
      "conceded": 6603,
      "calculations": 6604,
      "animals": 6605,
      "promoting": 6606,
      "bullish": 6607,
      "shelf": 6608,
      "repeatedly": 6609,
      "preparing": 6610,
      "judgment": 6611,
      "dorrance": 6612,
      "elderly": 6613,
      "expenditures": 6614,
      "500": 6615,
      "petrochemical": 6616,
      "reveal": 6617,
      "cumulative": 6618,
      "darman": 6619,
      "fierce": 6620,
      "honor": 6621,
      "nigel": 6622,
      "nabisco": 6623,
      "pioneer": 6624,
      "vulnerable": 6625,
      "semel": 6626,
      "concessions": 6627,
      "sullivan": 6628,
      "netherlands": 6629,
      "absolutely": 6630,
      "lucrative": 6631,
      "discretion": 6632,
      "discrimination": 6633,
      "geneva": 6634,
      "efficiency": 6635,
      "consortium": 6636,
      "12": 6637,
      "avery": 6638,
      "bag": 6639,
      "dro": 6640,
      "dies": 6641,
      "dress": 6642,
      "dtv": 6643,
      "emot": 6644,
      "fet": 6645,
      "fha": 6646,
      "gall": 6647,
      "gerald": 6648,
      "hed": 6649,
      "hdtv": 6650,
      "ians": 6651,
      "kansas": 6652,
      "lunch": 6653,
      "nice": 6654,
      "ozone": 6655,
      "song": 6656,
      "troller": 6657,
      "ux": 6658,
      "uations": 6659,
      "vig": 6660,
      "infr": 6661,
      "injury": 6662,
      "unclear": 6663,
      "unsuccessful": 6664,
      "unprecedent": 6665,
      "resto": 6666,
      "removed": 6667,
      "reacted": 6668,
      "reverse": 6669,
      "reporter": 6670,
      "stig": 6671,
      "stam": 6672,
      "enform": 6673,
      "engin": 6674,
      "encing": 6675,
      "enbaum": 6676,
      "alto": 6677,
      "albert": 6678,
      "edith": 6679,
      "arity": 6680,
      "arranged": 6681,
      "itte": 6682,
      "itable": 6683,
      "itted": 6684,
      "ilton": 6685,
      "icon": 6686,
      "icop": 6687,
      "ician": 6688,
      "cole": 6689,
      "aded": 6690,
      "adul": 6691,
      "adopt": 6692,
      "bever": 6693,
      "cter": 6694,
      "delo": 6695,
      "logy": 6696,
      "lorenz": 6697,
      "ldp": 6698,
      "superi": 6699,
      "protests": 6700,
      "prominent": 6701,
      "procter": 6702,
      "explan": 6703,
      "exposed": 6704,
      "mood": 6705,
      "heed": 6706,
      "heating": 6707,
      "ambit": 6708,
      "comptroller": 6709,
      "neb": 6710,
      "nev": 6711,
      "absen": 6712,
      "accommod": 6713,
      "buick": 6714,
      "strongest": 6715,
      "anywhere": 6716,
      "oppen": 6717,
      "upset": 6718,
      "upham": 6719,
      "endors": 6720,
      "feared": 6721,
      "ieux": 6722,
      "notice": 6723,
      "notably": 6724,
      "meredith": 6725,
      "merieux": 6726,
      "intervent": 6727,
      "prestig": 6728,
      "achenbaum": 6729,
      "bru": 6730,
      "bright": 6731,
      "ignoring": 6732,
      "render": 6733,
      "spired": 6734,
      "buys": 6735,
      "highs": 6736,
      "surface": 6737,
      "surrender": 6738,
      "operated": 6739,
      "inevit": 6740,
      "adeau": 6741,
      "computing": 6742,
      "tony": 6743,
      "valuation": 6744,
      "clothing": 6745,
      "landing": 6746,
      "employs": 6747,
      "employer": 6748,
      "colon": 6749,
      "colony": 6750,
      "useful": 6751,
      "halted": 6752,
      "surely": 6753,
      "shipyard": 6754,
      "periods": 6755,
      "privile": 6756,
      "rubic": 6757,
      "involves": 6758,
      "broadly": 6759,
      "sentence": 6760,
      "richmond": 6761,
      "posting": 6762,
      "harry": 6763,
      "rank": 6764,
      "truly": 6765,
      "revco": 6766,
      "floating": 6767,
      "visible": 6768,
      "advances": 6769,
      "campaigns": 6770,
      "waited": 6771,
      "violated": 6772,
      "solidarity": 6773,
      "nelson": 6774,
      "deciding": 6775,
      "mason": 6776,
      "benefited": 6777,
      "improving": 6778,
      "offsetting": 6779,
      "talked": 6780,
      "bonus": 6781,
      "featuring": 6782,
      "explaining": 6783,
      "application": 6784,
      "frederick": 6785,
      "contribute": 6786,
      "hotels": 6787,
      "fireman": 6788,
      "challenges": 6789,
      "tracks": 6790,
      "recognize": 6791,
      "silicon": 6792,
      "momentum": 6793,
      "visited": 6794,
      "routes": 6795,
      "refining": 6796,
      "franchisees": 6797,
      "storm": 6798,
      "gardens": 6799,
      "lockheed": 6800,
      "brooklyn": 6801,
      "nicaraguan": 6802,
      "examination": 6803,
      "microsoft": 6804,
      "jeff": 6805,
      "columns": 6806,
      "animal": 6807,
      "basketball": 6808,
      "merkur": 6809,
      "rarely": 6810,
      "categories": 6811,
      "windows": 6812,
      "strikes": 6813,
      "striking": 6814,
      "ignore": 6815,
      "passenger": 6816,
      "heimer": 6817,
      "robin": 6818,
      "lifted": 6819,
      "pregnant": 6820,
      "conflict": 6821,
      "engineered": 6822,
      "arrived": 6823,
      "comedy": 6824,
      "psychology": 6825,
      "maidenform": 6826,
      "seagram": 6827,
      "tanks": 6828,
      "anthony": 6829,
      "recruit": 6830,
      "emotional": 6831,
      "unprecedented": 6832,
      "restored": 6833,
      "stamford": 6834,
      "engines": 6835,
      "coleman": 6836,
      "adults": 6837,
      "beverly": 6838,
      "deloitte": 6839,
      "lorenzo": 6840,
      "superior": 6841,
      "explanation": 6842,
      "ambitious": 6843,
      "absence": 6844,
      "accommodate": 6845,
      "oppenheimer": 6846,
      "intervention": 6847,
      "rubicam": 6848,
      "60s": 6849,
      "bork": 6850,
      "cie": 6851,
      "dpc": 6852,
      "fend": 6853,
      "favo": 6854,
      "fault": 6855,
      "hbo": 6856,
      "herald": 6857,
      "kab": 6858,
      "kemp": 6859,
      "olive": 6860,
      "pour": 6861,
      "rh": 6862,
      "rud": 6863,
      "rink": 6864,
      "sdi": 6865,
      "siz": 6866,
      "tti": 6867,
      "tank": 6868,
      "ucky": 6869,
      "wary": 6870,
      "yu": 6871,
      "yes": 6872,
      "zed": 6873,
      "repay": 6874,
      "atures": 6875,
      "ality": 6876,
      "arco": 6877,
      "arrest": 6878,
      "itt": 6879,
      "roe": 6880,
      "rolet": 6881,
      "covert": 6882,
      "idle": 6883,
      "idency": 6884,
      "chu": 6885,
      "levine": 6886,
      "commo": 6887,
      "utter": 6888,
      "debut": 6889,
      "lov": 6890,
      "agend": 6891,
      "shield": 6892,
      "shrink": 6893,
      "mechan": 6894,
      "exhib": 6895,
      "ams": 6896,
      "abins": 6897,
      "peach": 6898,
      "pestic": 6899,
      "implement": 6900,
      "impeach": 6901,
      "dore": 6902,
      "dole": 6903,
      "string": 6904,
      "opposite": 6905,
      "upper": 6906,
      "upscale": 6907,
      "pork": 6908,
      "asts": 6909,
      "actively": 6910,
      "shared": 6911,
      "female": 6912,
      "bok": 6913,
      "presidency": 6914,
      "afraid": 6915,
      "links": 6916,
      "finland": 6917,
      "kee": 6918,
      "keating": 6919,
      "merchan": 6920,
      "minum": 6921,
      "thanks": 6922,
      "craz": 6923,
      "crane": 6924,
      "achi": 6925,
      "content": 6926,
      "reebok": 6927,
      "mather": 6928,
      "ishita": 6929,
      "surger": 6930,
      "bondholders": 6931,
      "rouge": 6932,
      "drivers": 6933,
      "drabins": 6934,
      "financi": 6935,
      "carlos": 6936,
      "carbon": 6937,
      "submit": 6938,
      "executed": 6939,
      "desert": 6940,
      "gramm": 6941,
      "maine": 6942,
      "parking": 6943,
      "paralle": 6944,
      "faction": 6945,
      "lately": 6946,
      "equally": 6947,
      "yielding": 6948,
      "mitsui": 6949,
      "realty": 6950,
      "films": 6951,
      "rick": 6952,
      "matched": 6953,
      "creditor": 6954,
      "moral": 6955,
      "morishita": 6956,
      "eurocom": 6957,
      "researcher": 6958,
      "liter": 6959,
      "benson": 6960,
      "transition": 6961,
      "belief": 6962,
      "delicious": 6963,
      "sixth": 6964,
      "wathen": 6965,
      "milan": 6966,
      "clause": 6967,
      "reaches": 6968,
      "mortality": 6969,
      "regulator": 6970,
      "denies": 6971,
      "rible": 6972,
      "packwood": 6973,
      "summit": 6974,
      "steadily": 6975,
      "restated": 6976,
      "patient": 6977,
      "universal": 6978,
      "choo": 6979,
      "kingdom": 6980,
      "1960s": 6981,
      "tokyu": 6982,
      "harold": 6983,
      "adjusters": 6984,
      "ranks": 6985,
      "emerged": 6986,
      "predicts": 6987,
      "hitachi": 6988,
      "blocks": 6989,
      "advancing": 6990,
      "suggestions": 6991,
      "targeted": 6992,
      "discounts": 6993,
      "confusion": 6994,
      "maintaining": 6995,
      "participating": 6996,
      "establishment": 6997,
      "liquor": 6998,
      "interviewed": 6999,
      "underwriting": 7000,
      "supercomputer": 7001,
      "conducting": 7002,
      "defined": 7003,
      "suffering": 7004,
      "contribution": 7005,
      "maturities": 7006,
      "investigations": 7007,
      "diego": 7008,
      "narrowed": 7009,
      "tourism": 7010,
      "gradu": 7011,
      "jerry": 7012,
      "stemming": 7013,
      "bradstreet": 7014,
      "repeal": 7015,
      "pursuing": 7016,
      "studied": 7017,
      "100": 7018,
      "garcia": 7019,
      "connected": 7020,
      "lobbying": 7021,
      "tickets": 7022,
      "rebounded": 7023,
      "granted": 7024,
      "reynold": 7025,
      "meantime": 7026,
      "satisfaction": 7027,
      "chevrolet": 7028,
      "deeply": 7029,
      "objectives": 7030,
      "displays": 7031,
      "squeezed": 7032,
      "aluminum": 7033,
      "physical": 7034,
      "cigarette": 7035,
      "reinforce": 7036,
      "ignored": 7037,
      "skeptical": 7038,
      "textile": 7039,
      "cyclical": 7040,
      "kentucky": 7041,
      "guilders": 7042,
      "mcdonough": 7043,
      "jewelry": 7044,
      "violate": 7045,
      "nestle": 7046,
      "incurred": 7047,
      "drove": 7048,
      "favored": 7049,
      "kabul": 7050,
      "olivetti": 7051,
      "rudman": 7052,
      "sizable": 7053,
      "commodore": 7054,
      "agenda": 7055,
      "impeachment": 7056,
      "merchants": 7057,
      "surgery": 7058,
      "drabinsky": 7059,
      "reynolds": 7060,
      "20": 7061,
      "bact": 7062,
      "cure": 7063,
      "cite": 7064,
      "cine": 7065,
      "fares": 7066,
      "gould": 7067,
      "hoff": 7068,
      "hang": 7069,
      "jam": 7070,
      "kas": 7071,
      "nad": 7072,
      "nstein": 7073,
      "niture": 7074,
      "ov": 7075,
      "oce": 7076,
      "oreg": 7077,
      "vacc": 7078,
      "wire": 7079,
      "zon": 7080,
      "zen": 7081,
      "inno": 7082,
      "inher": 7083,
      "insiders": 7084,
      "theid": 7085,
      "unconstitutional": 7086,
      "errill": 7087,
      "stages": 7088,
      "oral": 7089,
      "enab": 7090,
      "enacted": 7091,
      "alco": 7092,
      "alive": 7093,
      "altogether": 7094,
      "edel": 7095,
      "artheid": 7096,
      "toy": 7097,
      "iter": 7098,
      "itage": 7099,
      "iscribe": 7100,
      "anderson": 7101,
      "coach": 7102,
      "seize": 7103,
      "chen": 7104,
      "adverse": 7105,
      "utsche": 7106,
      "urge": 7107,
      "decker": 7108,
      "deutsche": 7109,
      "lokh": 7110,
      "conist": 7111,
      "shev": 7112,
      "nost": 7113,
      "nell": 7114,
      "apie": 7115,
      "apartheid": 7116,
      "libor": 7117,
      "quit": 7118,
      "peco": 7119,
      "imp": 7120,
      "impose": 7121,
      "bugs": 7122,
      "married": 7123,
      "haven": 7124,
      "endous": 7125,
      "femin": 7126,
      "antar": 7127,
      "stockhol": 7128,
      "emissions": 7129,
      "ardnad": 7130,
      "banning": 7131,
      "bernstein": 7132,
      "salaries": 7133,
      "mere": 7134,
      "interim": 7135,
      "acker": 7136,
      "miniscribe": 7137,
      "minpeco": 7138,
      "overcome": 7139,
      "losers": 7140,
      "grab": 7141,
      "diseas": 7142,
      "volokh": 7143,
      "dingell": 7144,
      "intend": 7145,
      "els": 7146,
      "salespeople": 7147,
      "teddy": 7148,
      "understanding": 7149,
      "serves": 7150,
      "payroll": 7151,
      "netic": 7152,
      "heritage": 7153,
      "cyc": 7154,
      "guys": 7155,
      "guerrill": 7156,
      "parov": 7157,
      "assigned": 7158,
      "latter": 7159,
      "regions": 7160,
      "registr": 7161,
      "publicity": 7162,
      "creates": 7163,
      "pursuit": 7164,
      "signing": 7165,
      "societe": 7166,
      "heading": 7167,
      "letting": 7168,
      "agreeing": 7169,
      "communication": 7170,
      "southeast": 7171,
      "sanford": 7172,
      "remainder": 7173,
      "simult": 7174,
      "hua": 7175,
      "movements": 7176,
      "furniture": 7177,
      "refuse": 7178,
      "clearance": 7179,
      "southwest": 7180,
      "singer": 7181,
      "indicted": 7182,
      "topic": 7183,
      "denver": 7184,
      "nato": 7185,
      "beneficial": 7186,
      "magnetic": 7187,
      "writers": 7188,
      "couples": 7189,
      "designs": 7190,
      "designer": 7191,
      "negotiate": 7192,
      "winners": 7193,
      "plex": 7194,
      "harvest": 7195,
      "settlements": 7196,
      "attempted": 7197,
      "combat": 7198,
      "combine": 7199,
      "suggesting": 7200,
      "depositary": 7201,
      "threatening": 7202,
      "violence": 7203,
      "nashua": 7204,
      "qualify": 7205,
      "bears": 7206,
      "picking": 7207,
      "stuck": 7208,
      "camera": 7209,
      "arkansas": 7210,
      "discussion": 7211,
      "christie": 7212,
      "wider": 7213,
      "steinberg": 7214,
      "feature": 7215,
      "treating": 7216,
      "bottle": 7217,
      "popularity": 7218,
      "amounted": 7219,
      "tougher": 7220,
      "mexican": 7221,
      "regardless": 7222,
      "consolidation": 7223,
      "smoke": 7224,
      "graded": 7225,
      "stemmed": 7226,
      "tendered": 7227,
      "promotional": 7228,
      "wrongdoing": 7229,
      "spirit": 7230,
      "excessive": 7231,
      "speculated": 7232,
      "consisting": 7233,
      "armstrong": 7234,
      "israeli": 7235,
      "acknowledges": 7236,
      "functions": 7237,
      "copyright": 7238,
      "glasnost": 7239,
      "shuttle": 7240,
      "montreal": 7241,
      "recommendations": 7242,
      "dipped": 7243,
      "hybrid": 7244,
      "historical": 7245,
      "falcon": 7246,
      "della": 7247,
      "slashed": 7248,
      "passengers": 7249,
      "protesters": 7250,
      "khmer": 7251,
      "assurance": 7252,
      "occasionally": 7253,
      "knocked": 7254,
      "sparked": 7255,
      "madison": 7256,
      "obligations": 7257,
      "tremendous": 7258,
      "leasing": 7259,
      "perception": 7260,
      "alaska": 7261,
      "soaring": 7262,
      "phase": 7263,
      "daly": 7264,
      "decrease": 7265,
      "fundamentals": 7266,
      "gathering": 7267,
      "13th": 7268,
      "defaults": 7269,
      "privatization": 7270,
      "atmosphere": 7271,
      "legitimate": 7272,
      "cineplex": 7273,
      "hoffman": 7274,
      "kasparov": 7275,
      "ocean": 7276,
      "oregon": 7277,
      "vaccine": 7278,
      "alcohol": 7279,
      "edelman": 7280,
      "coniston": 7281,
      "shevardnad": 7282,
      "apiece": 7283,
      "femina": 7284,
      "stockholm": 7285,
      "diseases": 7286,
      "registration": 7287,
      "simultane": 7288,
      "shevardnadze": 7289,
      "aired": 7290,
      "bour": 7291,
      "dim": 7292,
      "dark": 7293,
      "dinner": 7294,
      "fres": 7295,
      "gir": 7296,
      "gte": 7297,
      "gren": 7298,
      "gates": 7299,
      "hint": 7300,
      "ius": 7301,
      "nfl": 7302,
      "nsc": 7303,
      "opo": 7304,
      "oli": 7305,
      "ota": 7306,
      "pall": 7307,
      "pcs": 7308,
      "rt": 7309,
      "sper": 7310,
      "scar": 7311,
      "sick": 7312,
      "uit": 7313,
      "vant": 7314,
      "wins": 7315,
      "wines": 7316,
      "xero": 7317,
      "yale": 7318,
      "zur": 7319,
      "zheim": 7320,
      "inished": 7321,
      "thered": 7322,
      "ana": 7323,
      "anhe": 7324,
      "remin": 7325,
      "recall": 7326,
      "reopen": 7327,
      "ature": 7328,
      "stun": 7329,
      "orle": 7330,
      "enon": 7331,
      "enact": 7332,
      "enem": 7333,
      "enius": 7334,
      "aluation": 7335,
      "alfred": 7336,
      "edt": 7337,
      "tosh": 7338,
      "inger": 7339,
      "assa": 7340,
      "aszheim": 7341,
      "iser": 7342,
      "isse": 7343,
      "isable": 7344,
      "isfield": 7345,
      "roch": 7346,
      "andler": 7347,
      "illegally": 7348,
      "cope": 7349,
      "seattle": 7350,
      "chances": 7351,
      "chandler": 7352,
      "saving": 7353,
      "lyon": 7354,
      "urally": 7355,
      "suisse": 7356,
      "proposing": 7357,
      "shif": 7358,
      "shake": 7359,
      "cease": 7360,
      "igo": 7361,
      "tron": 7362,
      "amended": 7363,
      "abrupt": 7364,
      "weisfield": 7365,
      "manip": 7366,
      "manila": 7367,
      "ques": 7368,
      "prince": 7369,
      "straszheim": 7370,
      "marvin": 7371,
      "anymore": 7372,
      "upjohn": 7373,
      "homa": 7374,
      "god": 7375,
      "actor": 7376,
      "ivative": 7377,
      "ivables": 7378,
      "monopo": 7379,
      "ulous": 7380,
      "ghes": 7381,
      "preserve": 7382,
      "banc": 7383,
      "bancorp": 7384,
      "ipino": 7385,
      "fines": 7386,
      "keen": 7387,
      "interpublic": 7388,
      "intermedi": 7389,
      "curtail": 7390,
      "minnes": 7391,
      "overhead": 7392,
      "crunch": 7393,
      "ightened": 7394,
      "blor": 7395,
      "blank": 7396,
      "diver": 7397,
      "contended": 7398,
      "grid": 7399,
      "fruit": 7400,
      "omenon": 7401,
      "counted": 7402,
      "commuters": 7403,
      "businessman": 7404,
      "intens": 7405,
      "mah": 7406,
      "izer": 7407,
      "thereafter": 7408,
      "understood": 7409,
      "issuance": 7410,
      "provigo": 7411,
      "steam": 7412,
      "cargo": 7413,
      "federally": 7414,
      "phones": 7415,
      "earning": 7416,
      "taxation": 7417,
      "evaluation": 7418,
      "temblor": 7419,
      "longstanding": 7420,
      "grows": 7421,
      "warming": 7422,
      "indexing": 7423,
      "cuban": 7424,
      "cubic": 7425,
      "cuba": 7426,
      "instant": 7427,
      "rises": 7428,
      "concerning": 7429,
      "olar": 7430,
      "spoke": 7431,
      "scholar": 7432,
      "filipino": 7433,
      "signals": 7434,
      "advising": 7435,
      "reduces": 7436,
      "communists": 7437,
      "iba": 7438,
      "epis": 7439,
      "receivables": 7440,
      "bennett": 7441,
      "hughes": 7442,
      "returning": 7443,
      "solve": 7444,
      "transplants": 7445,
      "iov": 7446,
      "numbered": 7447,
      "specializes": 7448,
      "azoff": 7449,
      "clar": 7450,
      "specify": 7451,
      "goldberg": 7452,
      "derivative": 7453,
      "entering": 7454,
      "careful": 7455,
      "politically": 7456,
      "observed": 7457,
      "burg": 7458,
      "burst": 7459,
      "ashland": 7460,
      "naturally": 7461,
      "dataproducts": 7462,
      "benefici": 7463,
      "writes": 7464,
      "authors": 7465,
      "patents": 7466,
      "weakened": 7467,
      "choices": 7468,
      "deliber": 7469,
      "restructured": 7470,
      "cheating": 7471,
      "score": 7472,
      "sooner": 7473,
      "dealership": 7474,
      "altered": 7475,
      "preference": 7476,
      "blocking": 7477,
      "listen": 7478,
      "feels": 7479,
      "journalists": 7480,
      "relevant": 7481,
      "cruise": 7482,
      "counterparts": 7483,
      "greenville": 7484,
      "greenwich": 7485,
      "nih": 7486,
      "sky": 7487,
      "arguing": 7488,
      "vari": 7489,
      "quotron": 7490,
      "scientist": 7491,
      "larry": 7492,
      "reviewing": 7493,
      "peterson": 7494,
      "drawing": 7495,
      "christian": 7496,
      "filling": 7497,
      "radiation": 7498,
      "exercisable": 7499,
      "switched": 7500,
      "exception": 7501,
      "conclusion": 7502,
      "apples": 7503,
      "settling": 7504,
      "influential": 7505,
      "attracting": 7506,
      "municipals": 7507,
      "disappointment": 7508,
      "parker": 7509,
      "ogue": 7510,
      "tumor": 7511,
      "integration": 7512,
      "stems": 7513,
      "doubts": 7514,
      "describes": 7515,
      "phenomenon": 7516,
      "equaling": 7517,
      "signaled": 7518,
      "diversify": 7519,
      "beatrice": 7520,
      "survival": 7521,
      "enterprise": 7522,
      "crops": 7523,
      "arrangements": 7524,
      "microprocess": 7525,
      "drinking": 7526,
      "ethics": 7527,
      "wearing": 7528,
      "misleading": 7529,
      "historically": 7530,
      "bureaucracy": 7531,
      "techniques": 7532,
      "expertise": 7533,
      "architecture": 7534,
      "raider": 7535,
      "robertson": 7536,
      "quantities": 7537,
      "barrier": 7538,
      "neighborhoods": 7539,
      "invited": 7540,
      "methods": 7541,
      "dialogue": 7542,
      "attendants": 7543,
      "witnesses": 7544,
      "deterioration": 7545,
      "anxiety": 7546,
      "constantly": 7547,
      "automatic": 7548,
      "conversations": 7549,
      "enhanced": 7550,
      "catalog": 7551,
      "dubbed": 7552,
      "minimal": 7553,
      "accurate": 7554,
      "assassination": 7555,
      "fabric": 7556,
      "sleep": 7557,
      "boesky": 7558,
      "finnish": 7559,
      "arrested": 7560,
      "oklahoma": 7561,
      "bourbon": 7562,
      "diminished": 7563,
      "fresenius": 7564,
      "girl": 7565,
      "grenfell": 7566,
      "oliver": 7567,
      "rtc": 7568,
      "xerox": 7569,
      "zurich": 7570,
      "anheuser": 7571,
      "orleans": 7572,
      "toshiba": 7573,
      "assault": 7574,
      "rochester": 7575,
      "intermediate": 7576,
      "minnesota": 7577,
      "beneficiaries": 7578,
      "48": 7579,
      "breach": 7580,
      "cc": 7581,
      "caf": 7582,
      "carter": 7583,
      "dent": 7584,
      "dive": 7585,
      "drought": 7586,
      "fan": 7587,
      "fate": 7588,
      "fman": 7589,
      "fcc": 7590,
      "ghost": 7591,
      "hab": 7592,
      "ika": 7593,
      "jit": 7594,
      "kers": 7595,
      "kins": 7596,
      "lly": 7597,
      "nip": 7598,
      "osoph": 7599,
      "pou": 7600,
      "pum": 7601,
      "pills": 7602,
      "rors": 7603,
      "sn": 7604,
      "sident": 7605,
      "soften": 7606,
      "sister": 7607,
      "taste": 7608,
      "wy": 7609,
      "iny": 7610,
      "inet": 7611,
      "inum": 7612,
      "infect": 7613,
      "unrelated": 7614,
      "erra": 7615,
      "error": 7616,
      "errors": 7617,
      "refunding": 7618,
      "removing": 7619,
      "ato": 7620,
      "attered": 7621,
      "islands": 7622,
      "roika": 7623,
      "anders": 7624,
      "icants": 7625,
      "seized": 7626,
      "chose": 7627,
      "leon": 7628,
      "levy": 7629,
      "forget": 7630,
      "adow": 7631,
      "bee": 7632,
      "saks": 7633,
      "utiny": 7634,
      "defeat": 7635,
      "depreciation": 7636,
      "lowe": 7637,
      "contel": 7638,
      "confront": 7639,
      "considers": 7640,
      "agnel": 7641,
      "ira": 7642,
      "prolong": 7643,
      "proponents": 7644,
      "shadow": 7645,
      "mount": 7646,
      "ambass": 7647,
      "abram": 7648,
      "accr": 7649,
      "accompl": 7650,
      "withdrew": 7651,
      "mancu": 7652,
      "quakes": 7653,
      "imminent": 7654,
      "outlay": 7655,
      "outcry": 7656,
      "pride": 7657,
      "llate": 7658,
      "doors": 7659,
      "strange": 7660,
      "hawa": 7661,
      "estroika": 7662,
      "endor": 7663,
      "corruption": 7664,
      "bogart": 7665,
      "perestroika": 7666,
      "istent": 7667,
      "bernard": 7668,
      "woo": 7669,
      "croft": 7670,
      "brings": 7671,
      "blast": 7672,
      "fraction": 7673,
      "disagree": 7674,
      "dissident": 7675,
      "spy": 7676,
      "serial": 7677,
      "command": 7678,
      "msley": 7679,
      "salesman": 7680,
      "joe": 7681,
      "province": 7682,
      "dry": 7683,
      "justify": 7684,
      "ptions": 7685,
      "sierra": 7686,
      "guess": 7687,
      "backer": 7688,
      "talent": 7689,
      "households": 7690,
      "supports": 7691,
      "sheets": 7692,
      "wellington": 7693,
      "warm": 7694,
      "helmsley": 7695,
      "norman": 7696,
      "norfolk": 7697,
      "reader": 7698,
      "indexes": 7699,
      "billing": 7700,
      "expired": 7701,
      "bidder": 7702,
      "spoken": 7703,
      "charlot": 7704,
      "ibb": 7705,
      "sank": 7706,
      "persistent": 7707,
      "receives": 7708,
      "hub": 7709,
      "pressing": 7710,
      "furs": 7711,
      "structured": 7712,
      "engage": 7713,
      "barred": 7714,
      "barry": 7715,
      "shippers": 7716,
      "azt": 7717,
      "virus": 7718,
      "earthquakes": 7719,
      "indicator": 7720,
      "topped": 7721,
      "rubles": 7722,
      "suitor": 7723,
      "hearst": 7724,
      "magn": 7725,
      "promising": 7726,
      "commercials": 7727,
      "proteins": 7728,
      "richter": 7729,
      "sites": 7730,
      "potato": 7731,
      "steelmakers": 7732,
      "negotiators": 7733,
      "universities": 7734,
      "publishes": 7735,
      "appellate": 7736,
      "ordinarily": 7737,
      "ranges": 7738,
      "tariffs": 7739,
      "northwest": 7740,
      "missile": 7741,
      "passing": 7742,
      "requirement": 7743,
      "marginal": 7744,
      "philosoph": 7745,
      "breaks": 7746,
      "breakers": 7747,
      "fastest": 7748,
      "listing": 7749,
      "glenn": 7750,
      "poorly": 7751,
      "skase": 7752,
      "personally": 7753,
      "educ": 7754,
      "ratners": 7755,
      "existence": 7756,
      "scrutiny": 7757,
      "subjects": 7758,
      "massa": 7759,
      "interviews": 7760,
      "rockwell": 7761,
      "defendant": 7762,
      "avoided": 7763,
      "widened": 7764,
      "murray": 7765,
      "trees": 7766,
      "consists": 7767,
      "circul": 7768,
      "whitten": 7769,
      "disputes": 7770,
      "exceeding": 7771,
      "gradually": 7772,
      "cultural": 7773,
      "convention": 7774,
      "passage": 7775,
      "sugarman": 7776,
      "consistent": 7777,
      "tasks": 7778,
      "squibb": 7779,
      "booming": 7780,
      "procedure": 7781,
      "indianapolis": 7782,
      "launching": 7783,
      "concentrated": 7784,
      "initiatives": 7785,
      "demonstrations": 7786,
      "battery": 7787,
      "columnist": 7788,
      "locations": 7789,
      "quietly": 7790,
      "stevens": 7791,
      "recommendation": 7792,
      "repairs": 7793,
      "inquiries": 7794,
      "hartford": 7795,
      "screens": 7796,
      "quantum": 7797,
      "philippine": 7798,
      "seeds": 7799,
      "mandatory": 7800,
      "solely": 7801,
      "entrepreneurs": 7802,
      "trimmed": 7803,
      "boyd": 7804,
      "cabinet": 7805,
      "assurances": 7806,
      "anxious": 7807,
      "automatically": 7808,
      "perfectly": 7809,
      "gillett": 7810,
      "delegation": 7811,
      "soybeans": 7812,
      "asserted": 7813,
      "platinum": 7814,
      "sweetened": 7815,
      "birth": 7816,
      "detect": 7817,
      "yamaichi": 7818,
      "absorb": 7819,
      "satisfy": 7820,
      "incorrect": 7821,
      "unocal": 7822,
      "convenience": 7823,
      "antonio": 7824,
      "catastrophic": 7825,
      "remarkable": 7826,
      "dodge": 7827,
      "486": 7828,
      "dentsu": 7829,
      "nippon": 7830,
      "infected": 7831,
      "andersson": 7832,
      "confrontation": 7833,
      "agnelli": 7834,
      "prolonged": 7835,
      "ambassador": 7836,
      "accrued": 7837,
      "mancuso": 7838,
      "outlays": 7839,
      "hawaii": 7840,
      "charlotte": 7841,
      "philosophy": 7842,
      ".-": 7843,
      "bide": 7844,
      "dd": 7845,
      "dated": 7846,
      "dere": 7847,
      "dney": 7848,
      "eper": 7849,
      "eating": 7850,
      "flaw": 7851,
      "fought": 7852,
      "gulation": 7853,
      "gambling": 7854,
      "hid": 7855,
      "iber": 7856,
      "ku": 7857,
      "lab": 7858,
      "lated": 7859,
      "laff": 7860,
      "lights": 7861,
      "mt": 7862,
      "nand": 7863,
      "nie": 7864,
      "nort": 7865,
      "nacle": 7866,
      "rit": 7867,
      "rera": 7868,
      "sis": 7869,
      "til": 7870,
      "tical": 7871,
      "uine": 7872,
      "vans": 7873,
      "wors": 7874,
      "xquote": 7875,
      "zwater": 7876,
      "thor": 7877,
      "inco": 7878,
      "inary": 7879,
      "inadequate": 7880,
      "thes": 7881,
      "theft": 7882,
      "unile": 7883,
      "unspecified": 7884,
      "reactions": 7885,
      "recreation": 7886,
      "replacing": 7887,
      "stin": 7888,
      "stall": 7889,
      "ena": 7890,
      "edience": 7891,
      "arnold": 7892,
      "toms": 7893,
      "ingly": 7894,
      "isch": 7895,
      "anda": 7896,
      "icits": 7897,
      "entities": 7898,
      "entech": 7899,
      "forfe": 7900,
      "beta": 7901,
      "uts": 7902,
      "destruction": 7903,
      "deeper": 7904,
      "igy": 7905,
      "excell": 7906,
      "territ": 7907,
      "hell": 7908,
      "likes": 7909,
      "accompan": 7910,
      "withdrawn": 7911,
      "peck": 7912,
      "geigy": 7913,
      "lla": 7914,
      "buro": 7915,
      "buff": 7916,
      "tea": 7917,
      "dogs": 7918,
      "dump": 7919,
      "essor": 7920,
      "austin": 7921,
      "hole": 7922,
      "stoll": 7923,
      "artists": 7924,
      "boun": 7925,
      "ulate": 7926,
      "embas": 7927,
      "lure": 7928,
      "lucky": 7929,
      "pered": 7930,
      "banxquote": 7931,
      "somehow": 7932,
      "interpre": 7933,
      "ourselves": 7934,
      "minating": 7935,
      "oversees": 7936,
      "cryst": 7937,
      "predec": 7938,
      "oma": 7939,
      "lows": 7940,
      "disob": 7941,
      "disrupt": 7942,
      "voices": 7943,
      "taipe": 7944,
      "surfaced": 7945,
      "genuine": 7946,
      "genentech": 7947,
      "issuing": 7948,
      "issuers": 7949,
      "drain": 7950,
      "ciba": 7951,
      "capable": 7952,
      "carbide": 7953,
      "fernand": 7954,
      "execute": 7955,
      "hero": 7956,
      "contrary": 7957,
      "guzman": 7958,
      "evident": 7959,
      "gaining": 7960,
      "jewish": 7961,
      "growers": 7962,
      "defended": 7963,
      "deficits": 7964,
      "industrywide": 7965,
      "ginnie": 7966,
      "spots": 7967,
      "farms": 7968,
      "clothes": 7969,
      "rican": 7970,
      "aided": 7971,
      "tenure": 7972,
      "relating": 7973,
      "soup": 7974,
      "politburo": 7975,
      "institutes": 7976,
      "homefed": 7977,
      "homeowners": 7978,
      "judici": 7979,
      "solar": 7980,
      "poned": 7981,
      "slated": 7982,
      "transfers": 7983,
      "translated": 7984,
      "administrator": 7985,
      "handed": 7986,
      "recording": 7987,
      "manufacture": 7988,
      "manufactured": 7989,
      "clou": 7990,
      "seemingly": 7991,
      "watson": 7992,
      "sydney": 7993,
      "sidelines": 7994,
      "borough": 7995,
      "freeman": 7996,
      "responses": 7997,
      "doubling": 7998,
      "rupted": 7999,
      "informal": 8000,
      "weaken": 8001,
      "provider": 8002,
      "steelmaker": 8003,
      "penney": 8004,
      "postal": 8005,
      "postponed": 8006,
      "scared": 8007,
      "practical": 8008,
      "mcduff": 8009,
      "circle": 8010,
      "questioned": 8011,
      "victor": 8012,
      "hampered": 8013,
      "boosts": 8014,
      "targeting": 8015,
      "alleges": 8016,
      "accepting": 8017,
      "acceptable": 8018,
      "acceptances": 8019,
      "establishing": 8020,
      "prosecution": 8021,
      "distribute": 8022,
      "stayed": 8023,
      "socialism": 8024,
      "sessions": 8025,
      "aims": 8026,
      "anticipates": 8027,
      "donated": 8028,
      "priorities": 8029,
      "supervision": 8030,
      "springs": 8031,
      "protecting": 8032,
      "sometime": 8033,
      "influenced": 8034,
      "intelogic": 8035,
      "accessories": 8036,
      "noncallable": 8037,
      "whittle": 8038,
      "disputed": 8039,
      "appealed": 8040,
      "slipping": 8041,
      "assured": 8042,
      "mounted": 8043,
      "mounting": 8044,
      "document": 8045,
      "advantages": 8046,
      "insulin": 8047,
      "fujis": 8048,
      "depository": 8049,
      "retiring": 8050,
      "fitzwater": 8051,
      "frequent": 8052,
      "function": 8053,
      "funny": 8054,
      "microsystems": 8055,
      "quotes": 8056,
      "quotas": 8057,
      "crowded": 8058,
      "eliza": 8059,
      "hypo": 8060,
      "wilson": 8061,
      "brazilian": 8062,
      "disciplinary": 8063,
      "tuition": 8064,
      "federated": 8065,
      "throwing": 8066,
      "patterns": 8067,
      "iatric": 8068,
      "quebec": 8069,
      "academy": 8070,
      "dictator": 8071,
      "subsequently": 8072,
      "flexible": 8073,
      "cabrera": 8074,
      "ortiz": 8075,
      "alexander": 8076,
      "warns": 8077,
      "deductions": 8078,
      "pregnancy": 8079,
      "routinely": 8080,
      "mistake": 8081,
      "angered": 8082,
      "roderick": 8083,
      "conversation": 8084,
      "unexpectedly": 8085,
      "statute": 8086,
      "interpretation": 8087,
      "symptoms": 8088,
      "gauge": 8089,
      "affidavit": 8090,
      "pinnacle": 8091,
      "illuminating": 8092,
      "discovery": 8093,
      "creek": 8094,
      "rigid": 8095,
      "inches": 8096,
      "instructions": 8097,
      "minerals": 8098,
      "bruce": 8099,
      "snapped": 8100,
      "deregulation": 8101,
      "hidden": 8102,
      "mtm": 8103,
      "norton": 8104,
      "unilever": 8105,
      "stalled": 8106,
      "forfeiture": 8107,
      "excellent": 8108,
      "territory": 8109,
      "accompanied": 8110,
      "buffet": 8111,
      "embassy": 8112,
      "interpreted": 8113,
      "predecessor": 8114,
      "disobedience": 8115,
      "taipei": 8116,
      "judiciary": 8117,
      "mcduffie": 8118,
      "elizabeth": 8119,
      "50s": 8120,
      "aer": 8121,
      "bof": 8122,
      "cen": 8123,
      "cson": 8124,
      "crown": 8125,
      "dick": 8126,
      "fits": 8127,
      "fancy": 8128,
      "fibers": 8129,
      "gut": 8130,
      "hend": 8131,
      "hedge": 8132,
      "jon": 8133,
      "kron": 8134,
      "lony": 8135,
      "nur": 8136,
      "nbi": 8137,
      "panc": 8138,
      "pach": 8139,
      "pwa": 8140,
      "rie": 8141,
      "scor": 8142,
      "slate": 8143,
      "tack": 8144,
      "tables": 8145,
      "taught": 8146,
      "wav": 8147,
      "zda": 8148,
      "inct": 8149,
      "inian": 8150,
      "insol": 8151,
      "inspired": 8152,
      "unnecessary": 8153,
      "ongoing": 8154,
      "regain": 8155,
      "stim": 8156,
      "stiff": 8157,
      "alber": 8158,
      "allocation": 8159,
      "alert": 8160,
      "itate": 8161,
      "escape": 8162,
      "ilization": 8163,
      "icable": 8164,
      "cook": 8165,
      "entity": 8166,
      "idian": 8167,
      "ousted": 8168,
      "cha": 8169,
      "cht": 8170,
      "chall": 8171,
      "lester": 8172,
      "lestick": 8173,
      "bean": 8174,
      "beers": 8175,
      "beef": 8176,
      "safer": 8177,
      "comic": 8178,
      "utilization": 8179,
      "decent": 8180,
      "depression": 8181,
      "conve": 8182,
      "contem": 8183,
      "contemporary": 8184,
      "lds": 8185,
      "sured": 8186,
      "irving": 8187,
      "proof": 8188,
      "memo": 8189,
      "ceived": 8190,
      "exterior": 8191,
      "excuse": 8192,
      "terry": 8193,
      "moore": 8194,
      "heavi": 8195,
      "amster": 8196,
      "comply": 8197,
      "neal": 8198,
      "liances": 8199,
      "peas": 8200,
      "impress": 8201,
      "impending": 8202,
      "buf": 8203,
      "dulent": 8204,
      "plate": 8205,
      "offensive": 8206,
      "aulds": 8207,
      "audulent": 8208,
      "iful": 8209,
      "unders": 8210,
      "cks": 8211,
      "hocks": 8212,
      "actors": 8213,
      "stol": 8214,
      "estinian": 8215,
      "corner": 8216,
      "marketer": 8217,
      "marketed": 8218,
      "footh": 8219,
      "feld": 8220,
      "felony": 8221,
      "bold": 8222,
      "monito": 8223,
      "pressured": 8224,
      "orkem": 8225,
      "centenn": 8226,
      "luent": 8227,
      "perceived": 8228,
      "afters": 8229,
      "notified": 8230,
      "noticed": 8231,
      "iple": 8232,
      "grocer": 8233,
      "meridian": 8234,
      "hispanic": 8235,
      "overtime": 8236,
      "override": 8237,
      "laid": 8238,
      "crus": 8239,
      "bless": 8240,
      "grip": 8241,
      "graw": 8242,
      "fraudulent": 8243,
      "renault": 8244,
      "omitted": 8245,
      "discre": 8246,
      "vowed": 8247,
      "counting": 8248,
      "spends": 8249,
      "spons": 8250,
      "ideal": 8251,
      "workstations": 8252,
      "mazda": 8253,
      "highways": 8254,
      "salesmen": 8255,
      "calgary": 8256,
      "pulling": 8257,
      "proving": 8258,
      "viable": 8259,
      "polaro": 8260,
      "drama": 8261,
      "avis": 8262,
      "finances": 8263,
      "capel": 8264,
      "carib": 8265,
      "substance": 8266,
      "phy": 8267,
      "background": 8268,
      "youth": 8269,
      "productive": 8270,
      "betting": 8271,
      "betics": 8272,
      "appliances": 8273,
      "valid": 8274,
      "shoes": 8275,
      "lesson": 8276,
      "warz": 8277,
      "defici": 8278,
      "inko": 8279,
      "mbian": 8280,
      "contracted": 8281,
      "rophe": 8282,
      "schwarz": 8283,
      "fourni": 8284,
      "lette": 8285,
      "courtroom": 8286,
      "courtaulds": 8287,
      "annu": 8288,
      "drops": 8289,
      "tenn": 8290,
      "epa": 8291,
      "angels": 8292,
      "europeans": 8293,
      "seconds": 8294,
      "bushel": 8295,
      "petrie": 8296,
      "enging": 8297,
      "newsprint": 8298,
      "eastman": 8299,
      "bara": 8300,
      "barbara": 8301,
      "mike": 8302,
      "affluent": 8303,
      "menfeld": 8304,
      "myers": 8305,
      "swing": 8306,
      "clark": 8307,
      "demanding": 8308,
      "regulated": 8309,
      "fails": 8310,
      "burger": 8311,
      "figured": 8312,
      "rushed": 8313,
      "casting": 8314,
      "limiting": 8315,
      "ballot": 8316,
      "brewer": 8317,
      "brecht": 8318,
      "designated": 8319,
      "sentenced": 8320,
      "winner": 8321,
      "cholester": 8322,
      "builders": 8323,
      "1950s": 8324,
      "kohl": 8325,
      "midst": 8326,
      "midland": 8327,
      "tariff": 8328,
      "mcgraw": 8329,
      "circus": 8330,
      "classroom": 8331,
      "resignations": 8332,
      "seventh": 8333,
      "hamilton": 8334,
      "hambrecht": 8335,
      "announcements": 8336,
      "discounted": 8337,
      "threats": 8338,
      "favors": 8339,
      "complains": 8340,
      "surveys": 8341,
      "humana": 8342,
      "humans": 8343,
      "painting": 8344,
      "naval": 8345,
      "exclude": 8346,
      "reviews": 8347,
      "cambridge": 8348,
      "cater": 8349,
      "contains": 8350,
      "containing": 8351,
      "candlestick": 8352,
      "prevented": 8353,
      "anticipate": 8354,
      "element": 8355,
      "murphy": 8356,
      "radical": 8357,
      "supermarket": 8358,
      "superconduct": 8359,
      "borrowers": 8360,
      "borrowings": 8361,
      "liquidation": 8362,
      "exercised": 8363,
      "blumenfeld": 8364,
      "conclude": 8365,
      "contributing": 8366,
      "walking": 8367,
      "printed": 8368,
      "tracking": 8369,
      "obtaining": 8370,
      "tumble": 8371,
      "retains": 8372,
      "narrowly": 8373,
      "assumes": 8374,
      "millan": 8375,
      "insisting": 8376,
      "integrity": 8377,
      "distinct": 8378,
      "kraft": 8379,
      "kravis": 8380,
      "amendments": 8381,
      "audiences": 8382,
      "predictions": 8383,
      "scandals": 8384,
      "statistical": 8385,
      "indiana": 8386,
      "macmillan": 8387,
      "palestinian": 8388,
      "horn": 8389,
      "concede": 8390,
      "loral": 8391,
      "ramada": 8392,
      "lobbyist": 8393,
      "landscape": 8394,
      "iveness": 8395,
      "tucson": 8396,
      "photos": 8397,
      "walker": 8398,
      "reluctance": 8399,
      "flagship": 8400,
      "confirmation": 8401,
      "speaking": 8402,
      "attitudes": 8403,
      "veterans": 8404,
      "bolstered": 8405,
      "colombia": 8406,
      "colombian": 8407,
      "prompting": 8408,
      "promptly": 8409,
      "arabia": 8410,
      "catastrophe": 8411,
      "warnings": 8412,
      "sweden": 8413,
      "rewards": 8414,
      "clinical": 8415,
      "stabilize": 8416,
      "conflicts": 8417,
      "fishing": 8418,
      "bristol": 8419,
      "strengthened": 8420,
      "kicki": 8421,
      "enhance": 8422,
      "desktop": 8423,
      "athletics": 8424,
      "gillette": 8425,
      "soybean": 8426,
      "beautiful": 8427,
      "daughter": 8428,
      "cooperative": 8429,
      "nominal": 8430,
      "diabetics": 8431,
      "defects": 8432,
      "sponsor": 8433,
      "evaluate": 8434,
      "agnos": 8435,
      "iption": 8436,
      "multiple": 8437,
      "tactics": 8438,
      "toxin": 8439,
      "gallery": 8440,
      "endorsed": 8441,
      "privilege": 8442,
      "massacre": 8443,
      "bofors": 8444,
      "census": 8445,
      "henderson": 8446,
      "kronor": 8447,
      "pancies": 8448,
      "pachinko": 8449,
      "scoring": 8450,
      "waves": 8451,
      "insolvent": 8452,
      "alberta": 8453,
      "challenging": 8454,
      "contempl": 8455,
      "amsterdam": 8456,
      "impressive": 8457,
      "foothills": 8458,
      "monitored": 8459,
      "centennial": 8460,
      "aftershocks": 8461,
      "grocery": 8462,
      "discrepancies": 8463,
      "sponsors": 8464,
      "polaroid": 8465,
      "caribbean": 8466,
      "fournier": 8467,
      "cholesterol": 8468,
      "superconductors": 8469,
      "astructure": 8470,
      "bage": 8471,
      "damp": 8472,
      "euser": 8473,
      "garet": 8474,
      "heral": 8475,
      "jona": 8476,
      "ker": 8477,
      "kate": 8478,
      "lap": 8479,
      "ladeau": 8480,
      "mated": 8481,
      "nr": 8482,
      "nex": 8483,
      "nights": 8484,
      "ome": 8485,
      "odu": 8486,
      "plo": 8487,
      "pess": 8488,
      "plot": 8489,
      "runk": 8490,
      "ratt": 8491,
      "sof": 8492,
      "sass": 8493,
      "tter": 8494,
      "tings": 8495,
      "yer": 8496,
      "zie": 8497,
      "threw": 8498,
      "iner": 8499,
      "inals": 8500,
      "inness": 8501,
      "anston": 8502,
      "unfairly": 8503,
      "unload": 8504,
      "erod": 8505,
      "rem": 8506,
      "reck": 8507,
      "refunds": 8508,
      "repaid": 8509,
      "rebuild": 8510,
      "resem": 8511,
      "reunification": 8512,
      "stitut": 8513,
      "oric": 8514,
      "enzie": 8515,
      "editors": 8516,
      "arts": 8517,
      "araf": 8518,
      "asp": 8519,
      "ases": 8520,
      "romo": 8521,
      "iles": 8522,
      "icenter": 8523,
      "coins": 8524,
      "seiz": 8525,
      "selection": 8526,
      "oust": 8527,
      "chromo": 8528,
      "saved": 8529,
      "deter": 8530,
      "defe": 8531,
      "whel": 8532,
      "eted": 8533,
      "etoric": 8534,
      "irable": 8535,
      "proto": 8536,
      "proven": 8537,
      "meat": 8538,
      "exodu": 8539,
      "soil": 8540,
      "moments": 8541,
      "modif": 8542,
      "neut": 8543,
      "abol": 8544,
      "weyer": 8545,
      "lim": 8546,
      "liable": 8547,
      "lihood": 8548,
      "accompany": 8549,
      "acles": 8550,
      "manner": 8551,
      "manuel": 8552,
      "quist": 8553,
      "pelled": 8554,
      "peladeau": 8555,
      "images": 8556,
      "imistic": 8557,
      "imler": 8558,
      "outsiders": 8559,
      "llander": 8560,
      "buoy": 8561,
      "teles": 8562,
      "margaret": 8563,
      "haeuser": 8564,
      "opard": 8565,
      "opposes": 8566,
      "opposing": 8567,
      "upheld": 8568,
      "inclined": 8569,
      "pledged": 8570,
      "hollander": 8571,
      "bobby": 8572,
      "boasts": 8573,
      "monted": 8574,
      "portable": 8575,
      "perip": 8576,
      "permits": 8577,
      "usia": 8578,
      "salv": 8579,
      "lining": 8580,
      "linking": 8581,
      "merit": 8582,
      "interven": 8583,
      "interior": 8584,
      "minds": 8585,
      "overwhel": 8586,
      "label": 8587,
      "cranston": 8588,
      "erally": 8589,
      "brian": 8590,
      "contact": 8591,
      "rental": 8592,
      "oms": 8593,
      "omni": 8594,
      "dismal": 8595,
      "intact": 8596,
      "intimate": 8597,
      "whenever": 8598,
      "comeback": 8599,
      "violin": 8600,
      "polly": 8601,
      "planet": 8602,
      "worm": 8603,
      "wort": 8604,
      "downs": 8605,
      "extending": 8606,
      "profile": 8607,
      "likelihood": 8608,
      "stewart": 8609,
      "carat": 8610,
      "carol": 8611,
      "justified": 8612,
      "substitut": 8613,
      "describe": 8614,
      "desirable": 8615,
      "guinness": 8616,
      "tale": 8617,
      "directed": 8618,
      "jeopard": 8619,
      "resumed": 8620,
      "capitalism": 8621,
      "vale": 8622,
      "shook": 8623,
      "formation": 8624,
      "goodyear": 8625,
      "firmly": 8626,
      "advise": 8627,
      "ickers": 8628,
      "shoulder": 8629,
      "fulton": 8630,
      "severely": 8631,
      "epicenter": 8632,
      "literally": 8633,
      "benz": 8634,
      "considerations": 8635,
      "gai": 8636,
      "petition": 8637,
      "johns": 8638,
      "barre": 8639,
      "transcanada": 8640,
      "openly": 8641,
      "decliners": 8642,
      "automated": 8643,
      "pricings": 8644,
      "mild": 8645,
      "customs": 8646,
      "knowing": 8647,
      "ordering": 8648,
      "positioned": 8649,
      "demanded": 8650,
      "waters": 8651,
      "ruth": 8652,
      "otic": 8653,
      "limitations": 8654,
      "texans": 8655,
      "hurting": 8656,
      "sharon": 8657,
      "processes": 8658,
      "patrick": 8659,
      "daimler": 8660,
      "authorization": 8661,
      "criteria": 8662,
      "midnight": 8663,
      "availability": 8664,
      "specter": 8665,
      "mcgovern": 8666,
      "revived": 8667,
      "revival": 8668,
      "northrop": 8669,
      "missiles": 8670,
      "experiencing": 8671,
      "questionable": 8672,
      "mediator": 8673,
      "appointments": 8674,
      "proceeding": 8675,
      "releases": 8676,
      "crush": 8677,
      "counterpart": 8678,
      "terminated": 8679,
      "terminals": 8680,
      "suggestion": 8681,
      "schedules": 8682,
      "gium": 8683,
      "skin": 8684,
      "premier": 8685,
      "frenzy": 8686,
      "maintains": 8687,
      "bearing": 8688,
      "trucking": 8689,
      "masson": 8690,
      "painful": 8691,
      "paintings": 8692,
      "criminals": 8693,
      "lacks": 8694,
      "picks": 8695,
      "prosecutions": 8696,
      "container": 8697,
      "approaches": 8698,
      "candy": 8699,
      "belgium": 8700,
      "preventing": 8701,
      "constitute": 8702,
      "radar": 8703,
      "nynex": 8704,
      "nyvale": 8705,
      "featured": 8706,
      "uncertainties": 8707,
      "watches": 8708,
      "welfare": 8709,
      "exceeds": 8710,
      "challenged": 8711,
      "cribed": 8712,
      "teaching": 8713,
      "sunnyvale": 8714,
      "trotter": 8715,
      "scenes": 8716,
      "convince": 8717,
      "riders": 8718,
      "repeat": 8719,
      "route": 8720,
      "neighbors": 8721,
      "occurs": 8722,
      "declares": 8723,
      "wisdom": 8724,
      "coastal": 8725,
      "regularly": 8726,
      "speculate": 8727,
      "burns": 8728,
      "fitness": 8729,
      "resisted": 8730,
      "honesty": 8731,
      "procedural": 8732,
      "apartments": 8733,
      "garbage": 8734,
      "wealthy": 8735,
      "survived": 8736,
      "genetics": 8737,
      "examine": 8738,
      "examiner": 8739,
      "lorin": 8740,
      "medicaid": 8741,
      "withdrawals": 8742,
      "demonstrators": 8743,
      "battered": 8744,
      "moderately": 8745,
      "compensate": 8746,
      "counseling": 8747,
      "russell": 8748,
      "historic": 8749,
      "bureaucrats": 8750,
      "owes": 8751,
      "weapon": 8752,
      "streamlining": 8753,
      "kaiser": 8754,
      "empty": 8755,
      "unveil": 8756,
      "enjoyed": 8757,
      "folks": 8758,
      "stabilizing": 8759,
      "destroyed": 8760,
      "cycling": 8761,
      "redeemed": 8762,
      "asserts": 8763,
      "platform": 8764,
      "solicitation": 8765,
      "rushing": 8766,
      "embarrassment": 8767,
      "beauty": 8768,
      "smoothly": 8769,
      "daughters": 8770,
      "mirage": 8771,
      "mirror": 8772,
      "mackenzie": 8773,
      "multiples": 8774,
      "obstacles": 8775,
      "kleinwort": 8776,
      "odeon": 8777,
      "afghanistan": 8778,
      "declaring": 8779,
      "refugees": 8780,
      "devastating": 8781,
      "sandinista": 8782,
      "precisely": 8783,
      "captured": 8784,
      "licensed": 8785,
      "brisk": 8786,
      "guests": 8787,
      "swiftly": 8788,
      "denominations": 8789,
      "constituents": 8790,
      "vigorous": 8791,
      "infrastructure": 8792,
      "robinson": 8793,
      "recruiting": 8794,
      "pouring": 8795,
      "rhetoric": 8796,
      "chugai": 8797,
      "crazy": 8798,
      "graduate": 8799,
      "cycles": 8800,
      "jonathan": 8801,
      "laptop": 8802,
      "nrm": 8803,
      "pessimistic": 8804,
      "runkel": 8805,
      "softer": 8806,
      "sassy": 8807,
      "reckless": 8808,
      "arafat": 8809,
      "chromosome": 8810,
      "defeated": 8811,
      "exodus": 8812,
      "weyerhaeuser": 8813,
      "accompanying": 8814,
      "buoyed": 8815,
      "telesis": 8816,
      "montedison": 8817,
      "peripheral": 8818,
      "overwhelming": 8819,
      "substitute": 8820,
      "14": 8821,
      "53": 8822,
      "bent": 8823,
      "bam": 8824,
      "bip": 8825,
      "cident": 8826,
      "cze": 8827,
      "dance": 8828,
      "eal": 8829,
      "ees": 8830,
      "egy": 8831,
      "fus": 8832,
      "fared": 8833,
      "gork": 8834,
      "gord": 8835,
      "greg": 8836,
      "greed": 8837,
      "hate": 8838,
      "hess": 8839,
      "hide": 8840,
      "ipl": 8841,
      "iples": 8842,
      "kan": 8843,
      "laband": 8844,
      "myst": 8845,
      "mbled": 8846,
      "macy": 8847,
      "osh": 8848,
      "oting": 8849,
      "pone": 8850,
      "pfe": 8851,
      "pump": 8852,
      "p53": 8853,
      "sut": 8854,
      "sloan": 8855,
      "smart": 8856,
      "slov": 8857,
      "tree": 8858,
      "tends": 8859,
      "tston": 8860,
      "tension": 8861,
      "vations": 8862,
      "vincent": 8863,
      "xy": 8864,
      "yant": 8865,
      "yel": 8866,
      "yfus": 8867,
      "zoil": 8868,
      "thrown": 8869,
      "ining": 8870,
      "inas": 8871,
      "intrad": 8872,
      "infin": 8873,
      "thening": 8874,
      "unavailable": 8875,
      "uncovered": 8876,
      "unsettled": 8877,
      "unanim": 8878,
      "ered": 8879,
      "erbam": 8880,
      "ont": 8881,
      "rec": 8882,
      "remo": 8883,
      "rell": 8884,
      "reinvestment": 8885,
      "retreat": 8886,
      "recovering": 8887,
      "reuters": 8888,
      "ativity": 8889,
      "oro": 8890,
      "enfield": 8891,
      "alike": 8892,
      "allocated": 8893,
      "toled": 8894,
      "iti": 8895,
      "escap": 8896,
      "asm": 8897,
      "isan": 8898,
      "isive": 8899,
      "isol": 8900,
      "rosh": 8901,
      "andrew": 8902,
      "coop": 8903,
      "cooperate": 8904,
      "ided": 8905,
      "chiv": 8906,
      "chart": 8907,
      "chung": 8908,
      "chiron": 8909,
      "lean": 8910,
      "leston": 8911,
      "adap": 8912,
      "admission": 8913,
      "ctuations": 8914,
      "sages": 8915,
      "devoted": 8916,
      "etite": 8917,
      "agers": 8918,
      "agile": 8919,
      "agine": 8920,
      "iras": 8921,
      "proposes": 8922,
      "proxy": 8923,
      "mell": 8924,
      "exter": 8925,
      "exporter": 8926,
      "trino": 8927,
      "tripl": 8928,
      "pock": 8929,
      "nose": 8930,
      "heights": 8931,
      "amaz": 8932,
      "ambled": 8933,
      "neat": 8934,
      "neck": 8935,
      "negl": 8936,
      "abm": 8937,
      "apy": 8938,
      "libr": 8939,
      "aced": 8940,
      "accus": 8941,
      "pegged": 8942,
      "imize": 8943,
      "imposing": 8944,
      "impression": 8945,
      "imagine": 8946,
      "akia": 8947,
      "buses": 8948,
      "dog": 8949,
      "butter": 8950,
      "therapy": 8951,
      "opens": 8952,
      "newer": 8953,
      "newark": 8954,
      "astic": 8955,
      "auctions": 8956,
      "iffer": 8957,
      "hoech": 8958,
      "marking": 8959,
      "ivory": 8960,
      "estones": 8961,
      "corr": 8962,
      "corning": 8963,
      "artisan": 8964,
      "fema": 8965,
      "boat": 8966,
      "bodia": 8967,
      "emhart": 8968,
      "luzon": 8969,
      "peratures": 8970,
      "salinas": 8971,
      "linda": 8972,
      "keith": 8973,
      "lawn": 8974,
      "prebon": 8975,
      "tires": 8976,
      "airing": 8977,
      "identity": 8978,
      "bria": 8979,
      "bribe": 8980,
      "bryant": 8981,
      "diet": 8982,
      "context": 8983,
      "contacts": 8984,
      "grum": 8985,
      "fragile": 8986,
      "corps": 8987,
      "cutbacks": 8988,
      "disks": 8989,
      "disposal": 8990,
      "discover": 8991,
      "dismis": 8992,
      "disruption": 8993,
      "suring": 8994,
      "cereal": 8995,
      "induce": 8996,
      "governors": 8997,
      "downgraded": 8998,
      "likewise": 8999,
      "herbert": 9000,
      "herself": 9001,
      "deserve": 9002,
      "mainstream": 9003,
      "guided": 9004,
      "parks": 9005,
      "productions": 9006,
      "attending": 9007,
      "appetite": 9008,
      "temperatures": 9009,
      "capitalists": 9010,
      "creativity": 9011,
      "chairs": 9012,
      "debacle": 9013,
      "helicop": 9014,
      "generale": 9015,
      "readily": 9016,
      "schwart": 9017,
      "filters": 9018,
      "charleston": 9019,
      "congressmen": 9020,
      "lowering": 9021,
      "vessels": 9022,
      "computerized": 9023,
      "annivers": 9024,
      "eurodollars": 9025,
      "announcer": 9026,
      "furor": 9027,
      "assembled": 9028,
      "transform": 9029,
      "competent": 9030,
      "demise": 9031,
      "occident": 9032,
      "shortages": 9033,
      "testify": 9034,
      "myself": 9035,
      "milestones": 9036,
      "clout": 9037,
      "clutter": 9038,
      "goldsmith": 9039,
      "completing": 9040,
      "reservations": 9041,
      "clubs": 9042,
      "regulate": 9043,
      "industrialized": 9044,
      "placement": 9045,
      "buried": 9046,
      "burned": 9047,
      "ruble": 9048,
      "datapoint": 9049,
      "subsidized": 9050,
      "freely": 9051,
      "cites": 9052,
      "coupled": 9053,
      "nathan": 9054,
      "protein": 9055,
      "sharing": 9056,
      "designing": 9057,
      "riskier": 9058,
      "processed": 9059,
      "reasonably": 9060,
      "dave": 9061,
      "choslov": 9062,
      "dreyfus": 9063,
      "purchasers": 9064,
      "penny": 9065,
      "postpone": 9066,
      "rallies": 9067,
      "scams": 9068,
      "stepping": 9069,
      "accountants": 9070,
      "revisions": 9071,
[...]
